[PAD]	0
[UNK]	0
[BOS]	0
[EOS]	0
[SEP]	0
[CLS]	0
[MASK]	0
ᄏᄏ	-0
▁t	-1
..	-2
▁s	-3
ng	-4
▁a	-5
he	-6
ᄏᄏᄏᄏ	-7
is	-8
er	-9
▁m	-10
▁b	-11
!!	-12
re	-13
an	-14
▁l	-15
▁이	-16
▁c	-17
▁w	-18
ing	-19
en	-20
in	-21
▁아	-22
...	-23
ou	-24
▁I	-25
▁the	-26
on	-27
ha	-28
it	-29
▁d	-30
▁f	-31
es	-32
▁so	-33
▁S	-34
너무	-35
▁g	-36
al	-37
or	-38
▁하	-39
▁p	-40
▁사	-41
니다	-42
▁진	-43
ar	-44
▁n	-45
▁그	-46
▁y	-47
▁T	-48
▁an	-49
▁너무	-50
ᅲᅲ	-51
▁진짜	-52
at	-53
▁is	-54
ᄏᄏᄏᄏᄏᄏᄏᄏ	-55
ve	-56
▁k	-57
▁보	-58
▁to	-59
▁나	-60
▁th	-61
as	-62
▁and	-63
▁좋	-64
om	-65
▁v	-66
▁1	-67
는데	-68
el	-69
et	-70
▁다	-71
oo	-72
▁가	-73
▁h	-74
un	-75
▁he	-76
▁o	-77
us	-78
--	-79
ic	-80
▁e	-81
ut	-82
▁어	-83
▁있	-84
▁you	-85
ᄏᄏᄏ	-86
ang	-87
▁in	-88
am	-89
▁잘	-90
네요	-91
▁A	-92
▁ha	-93
le	-94
....	-95
!!!!	-96
ll	-97
ak	-98
ed	-99
▁lo	-100
▁저	-101
ay	-102
▁j	-103
▁J	-104
▁오	-105
▁B	-106
ly	-107
▁안	-108
ow	-109
▁this	-110
▁H	-111
▁한	-112
▁i	-113
▁영	-114
▁re	-115
▁be	-116
os	-117
▁2	-118
▁M	-119
▁st	-120
hat	-121
으로	-122
▁대	-123
▁L	-124
▁귀	-125
▁와	-126
▁ᄏᄏᄏᄏ	-127
에서	-128
ch	-129
~~	-130
▁W	-131
ot	-132
▁정	-133
▁of	-134
▁같	-135
▁사랑	-136
▁K	-137
▁자	-138
▁se	-139
▁노	-140
ver	-141
▁우	-142
ent	-143
▁기	-144
▁it	-145
▁시	-146
ac	-147
▁C	-148
▁지	-149
ir	-150
하고	-151
▁N	-152
▁개	-153
▁for	-154
하는	-155
▁마	-156
ik	-157
▁me	-158
▁미	-159
습니다	-160
id	-161
어요	-162
▁내	-163
▁인	-164
▁말	-165
??	-166
!!!	-167
▁감	-168
▁song	-169
▁love	-170
▁아니	-171
▁on	-172
▁제	-173
▁중	-174
▁모	-175
▁노래	-176
ag	-177
NG	-178
im	-179
ter	-180
합니다	-181
ad	-182
▁해	-183
▁can	-184
----	-185
ae	-186
▁하영	-187
ally	-188
est	-189
▁유	-190
▁that	-191
▁G	-192
▁su	-193
▁부	-194
gh	-195
세요	-196
▁고	-197
▁무	-198
▁생	-199
▁웃	-200
▁많	-201
ith	-202
▁예	-203
▁수	-204
ᄒᄒ	-205
▁없	-206
▁D	-207
▁더	-208
▁좋아	-209
▁with	-210
▁E	-211
하하	-212
▁Y	-213
▁영상	-214
는거	-215
▁her	-216
▁여	-217
▁전	-218
소리	-219
▁ᅲᅲ	-220
▁are	-221
▁재	-222
▁들	-223
▁ᄏᄏᄏᄏᄏᄏᄏᄏ	-224
ul	-225
▁왜	-226
▁넘	-227
언니	-228
▁de	-229
▁P	-230
▁al	-231
hy	-232
ook	-233
▁사람	-234
▁알	-235
렇게	-236
ung	-237
▁만	-238
ore	-239
▁일	-240
ya	-241
ion	-242
으면	-243
ue	-244
▁하영이	-245
ce	-246
▁O	-247
▁vo	-248
EN	-249
op	-250
ong	-251
ike	-252
▁F	-253
▁귀여	-254
▁스	-255
ie	-256
▁아이	-257
▁우리	-258
ust	-259
ill	-260
▁소	-261
ant	-262
▁r	-263
▁ᄏᄏᄏ	-264
▁my	-265
이라	-266
ist	-267
▁3	-268
il	-269
ct	-270
▁보고	-271
ap	-272
▁거	-273
▁ᄏᄏ	-274
▁바	-275
▁like	-276
▁신	-277
▁Som	-278
▁주	-279
um	-280
▁형	-281
▁ne	-282
,,	-283
00	-284
ᅮᅮ	-285
ER	-286
이다	-287
out	-288
▁Th	-289
▁Somi	-290
▁목	-291
▁정말	-292
까지	-293
▁The	-294
▁살	-295
ah	-296
ee	-297
▁사랑해	-298
▁조	-299
^^	-300
▁q	-301
ice	-302
▁생각	-303
▁되	-304
▁com	-305
▁mu	-306
▁she	-307
▁것	-308
들이	-309
▁u	-310
▁비	-311
지만	-312
▁뭐	-313
▁SO	-314
very	-315
하게	-316
▁"	-317
ld	-318
▁김	-319
▁최	-320
ack	-321
▁am	-322
면서	-323
▁먹	-324
▁역	-325
▁감사	-326
▁행	-327
▁:	-328
▁en	-329
if	-330
▁세	-331
▁느	-332
▁really	-333
▁장	-334
▁연	-335
니까	-336
▁just	-337
▁but	-338
▁못	-339
윈터	-340
▁계	-341
제이	-342
▁목소리	-343
▁TH	-344
▁as	-345
▁많이	-346
다고	-347
▁bang	-348
ab	-349
!!!!!!!!	-350
▁0	-351
▁do	-352
▁오늘	-353
▁mak	-354
▁윈터	-355
▁화	-356
▁IU	-357
ᅲᅲᅲᅲ	-358
▁반	-359
▁않	-360
:3	-361
ᄏᄏᄏᄏᄏᄏᄏᄏᄏᄏᄏᄏᄏᄏᄏᄏ	-362
nd	-363
and	-364
av	-365
▁엄	-366
▁동	-367
--------	-368
▁4	-369
▁분	-370
em	-371
▁행복	-372
▁con	-373
▁they	-374
▁ᄒᄒ	-375
▁per	-376
▁banget	-377
▁was	-378
au	-379
pp	-380
:2	-381
▁때	-382
▁ch	-383
아요	-384
AN	-385
ain	-386
▁un	-387
인데	-388
▁all	-389
▁5	-390
▁남	-391
▁귀여워	-392
▁som	-393
se	-394
종국	-395
▁얼	-396
▁재밌	-397
▁그냥	-398
▁이렇게	-399
▁voice	-400
ry	-401
▁근	-402
ght	-403
▁상	-404
▁every	-405
▁much	-406
▁we	-407
▁not	-408
▁성	-409
▁귀엽	-410
주세요	-411
:1	-412
hen	-413
one	-414
▁라	-415
▁할	-416
ᄏᄏᄏᄏᄏ	-417
▁언니	-418
해서	-419
ays	-420
▁wh	-421
▁cut	-422
st	-423
ny	-424
lo	-425
대장	-426
는게	-427
▁건	-428
▁좋은	-429
▁방	-430
하하하하	-431
hyun	-432
▁싶	-433
항상	-434
▁This	-435
.....	-436
▁또	-437
AH	-438
▁두	-439
▁R	-440
ide	-441
ri	-442
▁레	-443
하다	-444
▁눈	-445
입니다	-446
end	-447
ood	-448
▁도	-449
이랑	-450
▁항상	-451
▁멋	-452
▁(	-453
리고	-454
ING	-455
어서	-456
▁역시	-457
▁공	-458
art	-459
▁que	-460
uy	-461
een	-462
▁매	-463
▁했	-464
▁완	-465
부터	-466
▁sh	-467
▁pr	-468
aa	-469
▁똑	-470
▁결	-471
her	-472
▁ᄏᄏᄏᄏᄏ	-473
▁애	-474
호이	-475
▁이런	-476
▁wor	-477
▁V	-478
▁당	-479
▁음	-480
♡♡	-481
▁강	-482
leas	-483
▁at	-484
▁his	-485
od	-486
▁요	-487
▁have	-488
▁올	-489
oy	-490
:4	-491
▁이번	-492
겠다	-493
th	-494
▁같은	-495
▁처	-496
ank	-497
ᄃᄃ	-498
:0	-499
▁맞	-500
라고	-501
▁힘	-502
▁es	-503
▁감사합니다	-504
▁Jung	-505
<3	-506
▁내가	-507
▁them	-508
▁군	-509
▁최고	-510
▁존	-511
▁이거	-512
TE	-513
▁ᄏ	-514
▁ex	-515
▁look	-516
▁나오	-517
ways	-518
구나	-519
보고	-520
이형	-521
ell	-522
▁10	-523
CT	-524
▁đ	-525
▁에	-526
arat	-527
보다	-528
▁get	-529
ur	-530
▁한국	-531
▁누	-532
이야	-533
▁sem	-534
▁선	-535
▁근데	-536
ight	-537
▁본	-538
:5	-539
ol	-540
▁립	-541
▁always	-542
▁tr	-543
▁아이유	-544
ᄏᄏᄏᄏᄏᄏ	-545
ite	-546
▁백	-547
AR	-548
해요	-549
▁best	-550
▁운	-551
▁fun	-552
▁위	-553
▁죽	-554
ect	-555
ka	-556
▁ad	-557
▁뭔	-558
IS	-559
az	-560
▁cute	-561
ove	-562
tt	-563
▁처음	-564
▁들어	-565
▁돌	-566
ber	-567
ali	-568
▁one	-569
▁대박	-570
AT	-571
▁more	-572
OO	-573
다는	-574
ive	-575
ery	-576
MI	-577
ia	-578
▁lag	-579
ih	-580
▁ag	-581
▁듣	-582
한테	-583
▁가비	-584
ess	-585
▁vide	-586
woo	-587
ku	-588
▁참	-589
eng	-590
aut	-591
▁fr	-592
ould	-593
our	-594
▁민	-595
ning	-596
eb	-597
▁ng	-598
▁your	-599
ream	-600
▁실	-601
▁fe	-602
lease	-603
▁언	-604
▁배	-605
윤모	-606
▁중국	-607
ok	-608
aek	-609
▁will	-610
▁<3	-611
▁X	-612
▁드	-613
▁12	-614
▁초	-615
하시	-616
▁미쳤	-617
angat	-618
amp	-619
진짜	-620
▁no	-621
▁구	-622
같은	-623
▁립제이	-624
▁pre	-625
ci	-626
AA	-627
가요	-628
▁하나	-629
ᅲᅲᅲ	-630
▁SE	-631
▁ab	-632
▁how	-633
▁그래	-634
었는데	-635
▁THE	-636
지막	-637
▁이제	-638
▁tim	-639
떨어	-640
▁guy	-641
▁when	-642
;;	-643
▁us	-644
▁beaut	-645
▁She	-646
aw	-647
▁치	-648
다가	-649
▁피	-650
님이	-651
이팅	-652
vent	-653
▁중대장	-654
▁good	-655
▁봤	-656
nya	-657
ost	-658
~~~	-659
▁느낌	-660
이네	-661
ig	-662
???	-663
▁둘	-664
▁좀	-665
▁go	-666
▁up	-667
isten	-668
하네	-669
▁지금	-670
▁NCT	-671
▁their	-672
▁마지막	-673
OU	-674
▁울	-675
에게	-676
▁It	-677
▁win	-678
ET	-679
▁입	-680
ous	-681
avor	-682
▁who	-683
▁불	-684
ES	-685
▁허	-686
▁20	-687
atch	-688
▁from	-689
iful	-690
▁카	-691
나요	-692
▁ᄏᄏᄏᄏᄏᄏ	-693
▁표	-694
iss	-695
▁여기	-696
reat	-697
▁건강	-698
▁mus	-699
▁박	-700
ire	-701
▁하는	-702
AL	-703
들은	-704
▁난	-705
▁kn	-706
ear	-707
▁out	-708
▁SOMI	-709
▁see	-710
ᄏᄏᄏᄏᄏᄏᄏ	-711
ink	-712
▁열	-713
하면	-714
▁다시	-715
kook	-716
venteen	-717
▁떨어	-718
▁U	-719
▁맛	-720
▁feel	-721
IN	-722
▁가수	-723
스러	-724
ind	-725
▁파	-726
▁..	-727
OR	-728
▁쓰	-729
▁계속	-730
들어	-731
▁😭	-732
ANG	-733
에요	-734
ib	-735
▁️	-736
▁,	-737
▁끝	-738
▁.	-739
▁이쁘	-740
하지	-741
▁video	-742
▁beautiful	-743
사람	-744
▁백현	-745
▁예쁘	-746
▁좋다	-747
▁리	-748
all	-749
▁dan	-750
▁추	-751
▁lu	-752
아서	-753
▁has	-754
aekhyun	-755
▁볼	-756
▁perf	-757
전드	-758
▁man	-759
다니	-760
떻게	-761
ck	-762
▁편	-763
▁놀	-764
▁하고	-765
ting	-766
▁guys	-767
▁listen	-768
▁너	-769
▁기다	-770
ON	-771
▁친	-772
▁know	-773
pa	-774
▁따	-775
▁❤	-776
ame	-777
대로	-778
▁달	-779
▁좋아요	-780
▁앞	-781
▁music	-782
▁Q	-783
ven	-784
▁있는	-785
mp	-786
▁보고싶	-787
als	-788
▁디	-789
▁서	-790
▁Love	-791
........	-792
지는	-793
▁somi	-794
▁-	-795
▁아닌	-796
ere	-797
▁어떻게	-798
처럼	-799
----------------	-800
▁게	-801
▁봐	-802
VE	-803
ca	-804
▁받	-805
▁차	-806
▁레전드	-807
▁7	-808
na	-809
▁lau	-810
▁time	-811
▁ᄅ	-812
튜브	-813
▁sing	-814
▁6	-815
▁bu	-816
▁원	-817
:00	-818
▁pl	-819
▁'	-820
▁머	-821
▁응	-822
ama	-823
▁Tae	-824
▁x	-825
▁ini	-826
▁심	-827
▁개웃	-828
▁마음	-829
▁터	-830
ᄀᄏ	-831
▁bet	-832
▁str	-833
▁얼굴	-834
▁tal	-835
▁songs	-836
▁di	-837
▁화이팅	-838
스트	-839
▁what	-840
▁무슨	-841
▁funny	-842
▁never	-843
▁ar	-844
ish	-845
▁did	-846
▁har	-847
azing	-848
▁현	-849
한다	-850
▁le	-851
▁don	-852
▁문	-853
중에	-854
▁ᅲ	-855
분들	-856
스럽	-857
▁순	-858
▁그런	-859
▁운동	-860
▁est	-861
리는	-862
있는	-863
ast	-864
▁him	-865
▁모르	-866
하하하하하하하하	-867
▁모습	-868
avorite	-869
anteng	-870
▁갑	-871
▁😂	-872
yong	-873
▁cha	-874
AS	-875
▁작	-876
▁or	-877
▁qu	-878
ii	-879
▁의	-880
▁후	-881
지고	-882
▁나도	-883
▁ᅲᅲᅲᅲ	-884
▁IS	-885
▁Win	-886
▁시즌	-887
▁carat	-888
▁gr	-889
삐쭈	-890
ari	-891
▁알았	-892
▁설	-893
▁언제	-894
▁...	-895
▁let	-896
▁here	-897
▁꿀	-898
▁포	-899
▁So	-900
▁제일	-901
▁happ	-902
ving	-903
▁watch	-904
so	-905
▁빨	-906
이가	-907
▁now	-908
▁9	-909
ves	-910
▁결혼	-911
▁대단	-912
▁명	-913
▁make	-914
셔서	-915
이고	-916
▁방송	-917
eep	-918
▁다른	-919
▁물	-920
▁집	-921
▁co	-922
▁ᄃᄃ	-923
▁같이	-924
▁ᄅᄋ	-925
▁laugh	-926
▁코	-927
마다	-928
ait	-929
ine	-930
▁양	-931
ingning	-932
uk	-933
▁LO	-934
▁걸	-935
▁썸	-936
인가	-937
ss	-938
ies	-939
ation	-940
▁about	-941
ard	-942
▁el	-943
ound	-944
▁ter	-945
▁강호이	-946
▁종국	-947
💜💜	-948
ita	-949
▁too	-950
▁몇	-951
,,,	-952
해주	-953
▁재미	-954
▁닮	-955
▁크	-956
영상	-957
▁엄청	-958
▁응원	-959
▁김종국	-960
▁solo	-961
▁Se	-962
▁te	-963
▁돌아	-964
▁아무	-965
▁날	-966
▁다음	-967
▁mas	-968
▁Thank	-969
▁please	-970
▁ᄏᄏᄏᄏᄏᄏᄏ	-971
▁국	-972
▁발	-973
사랑	-974
per	-975
▁이게	-976
▁You	-977
▁even	-978
▁땡	-979
시는	-980
ark	-981
▁천	-982
었다	-983
▁ganteng	-984
XO	-985
▁닝	-986
▁버	-987
▁몰	-988
act	-989
시간	-990
▁ᅮᅮ	-991
▁need	-992
▁want	-993
▁고마	-994
▁amazing	-995
▁Winter	-996
기네	-997
하영	-998
▁속	-999
고싶	-1000
▁같아요	-1001
!!!!!	-1002
▁Jungwoo	-1003
▁완전	-1004
use	-1005
▁기대	-1006
..?	-1007
것도	-1008
아니	-1009
▁des	-1010
▁그리고	-1011
IT	-1012
▁산	-1013
궁금	-1014
int	-1015
▁KT	-1016
▁la	-1017
▁한번	-1018
eren	-1019
▁yang	-1020
▁커	-1021
라는	-1022
!!!!!!!!!!!!!!!!	-1023
ên	-1024
irl	-1025
ory	-1026
븐틴	-1027
ort	-1028
▁모든	-1029
thing	-1030
RE	-1031
uh	-1032
ile	-1033
ough	-1034
eback	-1035
▁sa	-1036
머니	-1037
▁cont	-1038
▁햄	-1039
▁개그	-1040
▁저런	-1041
▁표정	-1042
~~~~	-1043
▁ber	-1044
▁again	-1045
oh	-1046
▁8	-1047
ENTE	-1048
텐션	-1049
▁if	-1050
▁요즘	-1051
▁엄마	-1052
▁great	-1053
▁better	-1054
▁복	-1055
을까	-1056
▁소미	-1057
▁스트	-1058
했는데	-1059
pe	-1060
을때	-1061
isa	-1062
▁얼마	-1063
이네요	-1064
▁Baekhyun	-1065
ep	-1066
귀여	-1067
▁aku	-1068
▁ser	-1069
▁갈	-1070
▁miss	-1071
▁show	-1072
aehyun	-1073
▁comeback	-1074
기가	-1075
jun	-1076
▁완벽	-1077
▁bl	-1078
▁나는	-1079
▁AN	-1080
▁어디	-1081
der	-1082
▁웃겨	-1083
▁stream	-1084
▁보여	-1085
▁127	-1086
▁세븐틴	-1087
이나	-1088
▁타	-1089
하세요	-1090
▁얘	-1091
분이	-1092
......	-1093
▁줄	-1094
워요	-1095
▁뭔가	-1096
▁our	-1097
▁땡깡	-1098
▁보는	-1099
▁소름	-1100
▁sub	-1101
▁Jungkook	-1102
▁looks	-1103
▁꼭	-1104
▁손	-1105
▁He	-1106
▁안되	-1107
▁팬	-1108
야지	-1109
ans	-1110
▁멋있	-1111
하는거	-1112
▁mem	-1113
▁형님	-1114
▁저렇게	-1115
▁back	-1116
▁MV	-1117
▁kt	-1118
▁say	-1119
▁voc	-1120
▁궁금	-1121
▁lit	-1122
▁외	-1123
이라고	-1124
UN	-1125
▁br	-1126
▁em	-1127
▁저도	-1128
적으로	-1129
▁any	-1130
▁성윤모	-1131
▁perfect	-1132
ick	-1133
▁YOU	-1134
▁girl	-1135
▁ᄒ	-1136
▁빠	-1137
ome	-1138
▁아니라	-1139
▁these	-1140
▁nh	-1141
▁They	-1142
▁kali	-1143
▁vamp	-1144
ps	-1145
▁경	-1146
▁케	-1147
▁sw	-1148
▁jung	-1149
????	-1150
▁by	-1151
정도	-1152
oon	-1153
xt	-1154
▁여자	-1155
▁prett	-1156
EE	-1157
▁확	-1158
저씨	-1159
▁앞으로	-1160
겠습니다	-1161
▁간	-1162
VENTE	-1163
ja	-1164
ua	-1165
▁year	-1166
▁semangat	-1167
▁닝닝	-1168
▁살아	-1169
▁미쳤다	-1170
▁very	-1171
▁We	-1172
▁새	-1173
ose	-1174
VENTEEN	-1175
▁ya	-1176
▁과	-1177
ohn	-1178
▁군대	-1179
▁많은	-1180
▁이건	-1181
하네요	-1182
▁still	-1183
▁몸	-1184
동안	-1185
are	-1186
ope	-1187
▁귀엽다	-1188
님은	-1189
람만	-1190
▁이뻐	-1191
▁SEVENTEEN	-1192
시고	-1193
▁신병	-1194
bum	-1195
▁예뻐	-1196
▁인터	-1197
▁story	-1198
?!	-1199
be	-1200
▁단	-1201
▁dis	-1202
▁work	-1203
▁호	-1204
umb	-1205
AM	-1206
tr	-1207
▁준	-1208
▁보면	-1209
▁반호이	-1210
▁사람이	-1211
hh	-1212
▁네	-1213
▁짱	-1214
▁컨	-1215
인줄	-1216
▁뭐야	-1217
▁일본	-1218
▁진심	-1219
▁장삐쭈	-1220
ga	-1221
▁혼	-1222
▁춤	-1223
ohnny	-1224
▁wait	-1225
AK	-1226
▁절	-1227
문에	-1228
ull	-1229
▁keep	-1230
de	-1231
쯔양	-1232
▁부럽	-1233
▁이유	-1234
ngel	-1235
▁솔	-1236
LL	-1237
▁tod	-1238
▁축	-1239
댓글	-1240
ake	-1241
▁sc	-1242
ely	-1243
▁sm	-1244
▁talent	-1245
▁favorite	-1246
만에	-1247
에도	-1248
한거	-1249
▁남자	-1250
AHAH	-1251
▁day	-1252
▁got	-1253
▁개그맨	-1254
cause	-1255
CK	-1256
▁ᄌ	-1257
심히	-1258
▁act	-1259
▁happy	-1260
ón	-1261
이는	-1262
▁미친	-1263
▁deng	-1264
▁목소리가	-1265
▁Taeyong	-1266
주는	-1267
▁당신	-1268
▁신기	-1269
▁쵸	-1270
네일	-1271
려고	-1272
줘서	-1273
▁있었	-1274
▁텐션	-1275
▁why	-1276
▁ga	-1277
▁똑똑	-1278
욱이형	-1279
▁같은데	-1280
▁만들어	-1281
▁함	-1282
😭😭	-1283
▁나와	-1284
▁찍	-1285
age	-1286
get	-1287
▁art	-1288
▁ᅲᅲᅲ	-1289
▁오늘도	-1290
▁점	-1291
▁고생	-1292
▁세상	-1293
▁맛있	-1294
▁men	-1295
▁사랑스러	-1296
enn	-1297
▁모두	-1298
▁출	-1299
▁im	-1300
하는데	-1301
▁end	-1302
▁!	-1303
iao	-1304
isu	-1305
▁알고	-1306
hing	-1307
▁way	-1308
▁kita	-1309
angan	-1310
▁Kore	-1311
▁돈	-1312
에는	-1313
할때	-1314
ure	-1315
▁시간	-1316
▁think	-1317
▁적	-1318
▁학	-1319
▁회	-1320
잖아	-1321
해도	-1322
elf	-1323
▁sk	-1324
▁감동	-1325
▁다들	-1326
▁하영아	-1327
▁관	-1328
하셨	-1329
▁영지	-1330
▁sama	-1331
▁악	-1332
▁Every	-1333
▁heart	-1334
▁통	-1335
▁ot	-1336
▁바로	-1337
▁친구	-1338
▁열심히	-1339
군요	-1340
▁둘이	-1341
▁인직	-1342
▁인터넷	-1343
▁well	-1344
▁pretty	-1345
▁벌	-1346
▁태	-1347
▁쵸단	-1348
▁part	-1349
▁suka	-1350
▁makes	-1351
쩌미	-1352
🤣🤣	-1353
▁똑같	-1354
▁lên	-1355
▁seventeen	-1356
ers	-1357
▁오빠	-1358
able	-1359
▁thank	-1360
생활	-1361
▁올라	-1362
▁웃기	-1363
▁썸네일	-1364
▁gi	-1365
▁매력	-1366
▁빨리	-1367
chan	-1368
▁some	-1369
▁믿	-1370
▁아빠	-1371
▁웃음	-1372
▁Carat	-1373
▁뒤	-1374
▁술	-1375
▁약	-1376
▁무서	-1377
▁없는	-1378
▁nya	-1379
▁would	-1380
▁because	-1381
▁담	-1382
▁평	-1383
거같	-1384
이지	-1385
ade	-1386
uta	-1387
▁머리	-1388
▁시작	-1389
▁존나	-1390
▁댓글	-1391
▁부모	-1392
▁100	-1393
▁such	-1394
▁헐	-1395
이크	-1396
▁11	-1397
▁hard	-1398
ighting	-1399
ᄏᄏᄏᄏᄏᄏᄏᄏᄏ	-1400
▁Seventeen	-1401
▁늘	-1402
▁Su	-1403
▁Let	-1404
▁왤	-1405
적인	-1406
ate	-1407
▁귀여운	-1408
iaojun	-1409
▁헤	-1410
도스	-1411
겠어요	-1412
ment	-1413
가는	-1414
han	-1415
▁제가	-1416
▁아저씨	-1417
▁곽	-1418
▁짜	-1419
더라	-1420
수록	-1421
▁ST	-1422
▁LOVE	-1423
파이	-1424
▁si	-1425
▁귀엽고	-1426
▁잠	-1427
▁찐	-1428
▁!!	-1429
▁IN	-1430
▁윤모	-1431
▁이야	-1432
▁제발	-1433
▁nct	-1434
▁유튜브	-1435
▁other	-1436
▁곡	-1437
adi	-1438
▁조합	-1439
▁쯔양	-1440
▁AND	-1441
▁bisa	-1442
▁?	-1443
▁즐	-1444
️️	-1445
▁pe	-1446
▁오랜	-1447
▁이상	-1448
▁얼마나	-1449
ip	-1450
▁24	-1451
irst	-1452
▁there	-1453
어도	-1454
vs	-1455
▁싸	-1456
▁only	-1457
▁사랑해요	-1458
▁ا	-1459
▁“	-1460
▁먼	-1461
디어	-1462
형님	-1463
▁af	-1464
▁킹	-1465
좋아	-1466
ngl	-1467
▁30	-1468
▁눈물	-1469
▁visu	-1470
▁everyone	-1471
냐고	-1472
▁bi	-1473
▁아직	-1474
▁연기	-1475
▁해주	-1476
▁딱	-1477
▁뮤	-1478
나는	-1479
콜라	-1480
▁그래서	-1481
▁THIS	-1482
▁also	-1483
▁Ningning	-1484
AY	-1485
oud	-1486
▁:)	-1487
▁tw	-1488
▁나왔	-1489
♡♡♡	-1490
kan	-1491
▁fin	-1492
▁lagu	-1493
▁kalian	-1494
▁vampire	-1495
to	-1496
▁왔	-1497
들도	-1498
app	-1499
▁13	-1500
▁가족	-1501
▁add	-1502
▁char	-1503
▁mere	-1504
▁angel	-1505
▁등	-1506
▁떠	-1507
▁lol	-1508
ts	-1509
없이	-1510
했다	-1511
▁소리	-1512
▁디도스	-1513
▁world	-1514
▁될	-1515
agi	-1516
▁TO	-1517
erally	-1518
nglish	-1519
▁~	-1520
▁온	-1521
수가	-1522
its	-1523
▁가장	-1524
...?	-1525
here	-1526
oung	-1527
▁ᄏᄏᄏᄏᄏᄏᄏᄏᄏ	-1528
▁캐	-1529
는지	-1530
▁^^	-1531
▁왤케	-1532
▁hope	-1533
AE	-1534
OW	-1535
▁독	-1536
ara	-1537
▁느껴	-1538
▁haha	-1539
귀여워	-1540
▁deser	-1541
ᄏᄏᄏᄏᄏᄏᄏᄏᄏᄏ	-1542
▁교	-1543
▁된	-1544
▁나이	-1545
▁real	-1546
▁별	-1547
▁삼	-1548
시다	-1549
▁JU	-1550
▁everything	-1551
LE	-1552
aha	-1553
oooo	-1554
▁stop	-1555
▁Johnny	-1556
▁listening	-1557
ful	-1558
ock	-1559
▁aw	-1560
▁mv	-1561
▁자주	-1562
eong	-1563
▁boy	-1564
▁does	-1565
▁most	-1566
▁next	-1567
▁content	-1568
해야	-1569
▁힘들	-1570
oint	-1571
ma	-1572
uu	-1573
▁팔	-1574
elle	-1575
▁동욱이형	-1576
▁충	-1577
인지	-1578
ace	-1579
▁보기	-1580
▁취	-1581
osa	-1582
▁계란	-1583
▁por	-1584
ud	-1585
아아	-1586
▁And	-1587
▁병	-1588
겠네	-1589
▁어쩜	-1590
▁카리	-1591
AAAA	-1592
other	-1593
pl	-1594
▁메	-1595
▁그렇	-1596
▁잘생	-1597
UE	-1598
ach	-1599
하면서	-1600
이브	-1601
▁말도	-1602
▁예능	-1603
▁우즈	-1604
으면서	-1605
agus	-1606
▁give	-1607
▁해주세요	-1608
▁직	-1609
any	-1610
ina	-1611
▁이해	-1612
▁ever	-1613
▁lagi	-1614
▁being	-1615
nh	-1616
지도	-1617
▁누가	-1618
▁연우	-1619
▁있을	-1620
anya	-1621
unya	-1622
▁딸	-1623
era	-1624
▁Que	-1625
▁made	-1626
▁좋아하는	-1627
ᄏᄏᄏᄏᄏᄏᄏᄏᄏᄏᄏ	-1628
▁😍	-1629
으니	-1630
이었	-1631
▁비슷	-1632
▁좋겠다	-1633
▁&	-1634
▁특	-1635
는다	-1636
프로	-1637
▁My	-1638
▁cr	-1639
▁기억	-1640
▁말이	-1641
▁허니	-1642
▁vib	-1643
▁BANG	-1644
▁been	-1645
▁겁	-1646
려주	-1647
스파	-1648
뚜껑	-1649
자기	-1650
▁ᄌᄂ	-1651
▁치킨	-1652
self	-1653
▁합니다	-1654
하신	-1655
ada	-1656
▁사람들	-1657
▁♡	-1658
▁엔	-1659
한데	-1660
iece	-1661
▁싫	-1662
▁찾	-1663
👍👍	-1664
osh	-1665
▁cl	-1666
▁여러	-1667
▁soo	-1668
▁보면서	-1669
▁member	-1670
▁#	-1671
▁번	-1672
기도	-1673
악회	-1674
하나	-1675
▁그러	-1676
▁유아	-1677
▁콜라	-1678
▁literally	-1679
하하하하하하하하하하하하하하하하	-1680
기는	-1681
수있	-1682
ming	-1683
▁streaming	-1684
ai	-1685
▁덕	-1686
것같	-1687
던데	-1688
▁같다	-1689
▁하루	-1690
▁sin	-1691
▁고마워	-1692
구요	-1693
▁bg	-1694
▁om	-1695
▁듣고	-1696
너무너무	-1697
awber	-1698
나오	-1699
치카	-1700
▁OM	-1701
▁대한	-1702
asih	-1703
ress	-1704
▁민쩌미	-1705
iselle	-1706
▁getting	-1707
▁채	-1708
▁큰	-1709
eet	-1710
▁Jaehyun	-1711
▁풀	-1712
▁홍	-1713
▁No	-1714
▁XO	-1715
▁Sem	-1716
▁proud	-1717
ᅳᅳ	-1718
뿌리	-1719
VER	-1720
▁자막	-1721
▁won	-1722
▁있는데	-1723
awberry	-1724
▁watching	-1725
ne	-1726
▁듯	-1727
▁ep	-1728
▁자기	-1729
▁축하	-1730
ff	-1731
▁광	-1732
▁높	-1733
▁맨	-1734
져서	-1735
▁ke	-1736
▁있다	-1737
ennie	-1738
▁hand	-1739
▁after	-1740
eonghan	-1741
▁뱀	-1742
귀엽	-1743
전에	-1744
진다	-1745
텐츠	-1746
zen	-1747
▁기분	-1748
▁나라	-1749
▁솔직	-1750
▁XOXO	-1751
▁BANGET	-1752
yo	-1753
나라	-1754
는건	-1755
보면	-1756
▁같아	-1757
같은데	-1758
이라니	-1759
terp	-1760
▁그래도	-1761
rying	-1762
▁thing	-1763
거야	-1764
▁만들	-1765
ción	-1766
▁cant	-1767
OM	-1768
up	-1769
dah	-1770
ool	-1771
▁두분	-1772
ople	-1773
▁바람만	-1774
uc	-1775
노래	-1776
인이	-1777
치원	-1778
님이랑	-1779
▁너무너무	-1780
og	-1781
밖에	-1782
▁sp	-1783
▁voz	-1784
ời	-1785
▁티	-1786
aaa	-1787
cep	-1788
게요	-1789
보니	-1790
▁우와	-1791
▁백현아	-1792
!!!!!!	-1793
▁vocals	-1794
ob	-1795
나서	-1796
더니	-1797
▁아프	-1798
▁저는	-1799
,,,,	-1800
▁그렇게	-1801
▁라치카	-1802
▁브	-1803
어야	-1804
이였	-1805
하영이	-1806
ᅮᅮᅮᅮ	-1807
▁fan	-1808
▁buat	-1809
UT	-1810
▁야	-1811
ady	-1812
~^^	-1813
▁OMG	-1814
▁first	-1815
ᅲᅲᅲᅲᅲᅲᅲᅲ	-1816
▁St	-1817
▁왜케	-1818
▁many	-1819
▁album	-1820
▁carats	-1821
IC	-1822
nt	-1823
▁막	-1824
들을	-1825
hed	-1826
▁IT	-1827
▁dr	-1828
▁che	-1829
▁moon	-1830
tit	-1831
▁이쁜	-1832
▁amo	-1833
▁했는데	-1834
ox	-1835
ity	-1836
▁ti	-1837
▁아름	-1838
이에요	-1839
▁bad	-1840
▁tan	-1841
▁결혼식	-1842
▁여기서	-1843
terpiece	-1844
▁ᄏᄏᄏᄏᄏᄏᄏᄏᄏᄏ	-1845
AG	-1846
ST	-1847
:01	-1848
▁뮤비	-1849
립니다	-1850
▁imp	-1851
riend	-1852
▁keren	-1853
▁mereka	-1854
gg	-1855
▁=	-1856
▁젤	-1857
분에	-1858
▁26	-1859
▁li	-1860
▁혼자	-1861
▁bos	-1862
▁슬	-1863
예요	-1864
지마	-1865
eon	-1866
ote	-1867
▁나온	-1868
▁먼저	-1869
▁벌써	-1870
겠네요	-1871
ando	-1872
pect	-1873
▁people	-1874
▁+	-1875
▁괜	-1876
▁급	-1877
TER	-1878
▁구독	-1879
▁미치	-1880
▁new	-1881
▁재미있	-1882
▁허니제이	-1883
LY	-1884
oc	-1885
▁첫	-1886
▁혹	-1887
힐링	-1888
▁인간	-1889
▁전소	-1890
으니까	-1891
▁Hend	-1892
하기	-1893
ary	-1894
asa	-1895
son	-1896
▁인생	-1897
▁😭😭	-1898
▁sel	-1899
▁over	-1900
오빠	-1901
▁than	-1902
은데	-1903
▁어떤	-1904
ular	-1905
▁CAR	-1906
▁아이돌	-1907
▁행복해	-1908
▁said	-1909
까요	-1910
라서	-1911
으셨	-1912
️‍	-1913
▁18	-1914
▁영화	-1915
▁two	-1916
▁나오는	-1917
arang	-1918
▁sweet	-1919
▁꾸	-1920
▁넣	-1921
▁왕	-1922
▁졸	-1923
하자	-1924
▁오래	-1925
때마다	-1926
▁백현이	-1927
▁데	-1928
▁써	-1929
▁키	-1930
텐데	-1931
ass	-1932
ict	-1933
les	-1934
ond	-1935
orm	-1936
▁Ch	-1937
▁고맙	-1938
▁정한	-1939
ious	-1940
▁una	-1941
▁갑자기	-1942
▁군생활	-1943
▁Mark	-1944
▁going	-1945
▁artist	-1946
▁canción	-1947
이면	-1948
:20	-1949
▁운전	-1950
▁전역	-1951
았는데	-1952
▁Her	-1953
▁dif	-1954
▁우즈벡	-1955
▁jungwoo	-1956
▁laughing	-1957
▁ơ	-1958
만큼	-1959
지않	-1960
▁방법	-1961
▁에스파	-1962
▁should	-1963
▁Xiaojun	-1964
▁착	-1965
았다	-1966
차로	-1967
aker	-1968
▁좋네요	-1969
▁종국이형	-1970
▁sound	-1971
▁Hendery	-1972
▁masterpiece	-1973
▁겨	-1974
amb	-1975
▁mi	-1976
▁op	-1977
▁어머	-1978
▁작품	-1979
▁하면	-1980
▁솔직히	-1981
ᄒᄏ	-1982
섭외	-1983
스크	-1984
▁yg	-1985
▁겁나	-1986
▁herm	-1987
▁whole	-1988
▁삶	-1989
셔야	-1990
시면	-1991
토리	-1992
own	-1993
▁id	-1994
▁배우	-1995
▁자신	-1996
었어요	-1997
ance	-1998
▁Aku	-1999
▁QUE	-2000
▁kal	-2001
▁노래가	-2002
▁카리나	-2003
▁Yuta	-2004
▁person	-2005
HY	-2006
km	-2007
▁변	-2008
▁질	-2009
▁첨	-2010
▁침	-2011
투리	-2012
oup	-2013
▁문제	-2014
▁사실	-2015
▁상윤	-2016
▁rem	-2017
ᄏᄏᄏᄏᄏᄏᄏᄏᄏᄏᄏᄏ	-2018
OT	-2019
kw	-2020
▁🥺	-2021
기를	-2022
님의	-2023
라도	-2024
마자	-2025
▁누구	-2026
▁자랑	-2027
reak	-2028
▁ᄒᄒᄒ	-2029
▁감스트	-2030
▁때문에	-2031
▁fact	-2032
▁슈	-2033
씨름	-2034
iew	-2035
ont	-2036
▁OF	-2037
▁hi	-2038
▁kh	-2039
▁là	-2040
▁무섭	-2041
▁보니	-2042
▁정도	-2043
▁heal	-2044
▁사랑스럽	-2045
▁CARAT	-2046
▁cover	-2047
ONG	-2048
fer	-2049
▁역대	-2050
▁CAN	-2051
▁tae	-2052
arina	-2053
▁쉬	-2054
rat	-2055
ric	-2056
▁음악	-2057
▁함께	-2058
▁힐링	-2059
▁del	-2060
▁unt	-2061
▁드디어	-2062
▁산악회	-2063
oween	-2064
▁hear	-2065
고있	-2066
ern	-2067
▁이름	-2068
isod	-2069
▁inc	-2070
▁lot	-2071
▁갑니다	-2072
▁재밌게	-2073
▁while	-2074
▁임	-2075
▁필	-2076
들의	-2077
▁있어	-2078
▁!!!	-2079
ought	-2080
▁있습니다	-2081
.......	-2082
웃겨	-2083
ᄒᄒᄒ	-2084
▁공부	-2085
▁개웃기네	-2086
▁queen	-2087
▁Please	-2088
▁episod	-2089
CH	-2090
▁깨	-2091
▁승	-2092
😂😂	-2093
EST	-2094
▁가사	-2095
ener	-2096
▁seb	-2097
▁잡	-2098
가서	-2099
와서	-2100
은거	-2101
▁어몽	-2102
▁이걸	-2103
▁정신	-2104
인가요	-2105
▁파뿌리	-2106
님도	-2107
보는	-2108
아이	-2109
지가	-2110
▁순간	-2111
▁예쁜	-2112
▁요리	-2113
▁이러	-2114
▁해야	-2115
시네요	-2116
▁bel	-2117
▁take	-2118
EL	-2119
▁금	-2120
▁로	-2121
건가	-2122
되는	-2123
말고	-2124
우파	-2125
ife	-2126
▁수고	-2127
▁점점	-2128
▁햄편	-2129
해주세요	-2130
게임	-2131
계란	-2132
ert	-2133
▁tu	-2134
▁박민	-2135
하는게	-2136
▁아니고	-2137
▁베	-2138
▁으	-2139
나고	-2140
려요	-2141
ACK	-2142
day	-2143
▁nà	-2144
▁싶다	-2145
▁라이브	-2146
▁앞으로도	-2147
▁could	-2148
~!	-2149
▁니	-2150
려서	-2151
api	-2152
▁gu	-2153
▁동생	-2154
▁불러	-2155
▁섭외	-2156
▁얘기	-2157
▁저거	-2158
▁1:3	-2159
▁FOR	-2160
▁enc	-2161
▁omg	-2162
▁into	-2163
▁jadi	-2164
▁play	-2165
▁총	-2166
▁Bl	-2167
▁bgt	-2168
▁가비님	-2169
ready	-2170
▁오랜만에	-2171
GH	-2172
iv	-2173
▁ᅮ	-2174
▁걍	-2175
어가	-2176
apa	-2177
red	-2178
▁15	-2179
▁그리	-2180
▁나만	-2181
▁느끼	-2182
▁보내	-2183
▁없다	-2184
ence	-2185
▁mel	-2186
▁컨텐츠	-2187
▁were	-2188
▁bosen	-2189
▁already	-2190
▁옛	-2191
▁증	-2192
지네	-2193
▁추억	-2194
▁200	-2195
▁had	-2196
▁ref	-2197
▁건강하게	-2198
▁Queen	-2199
▁subtit	-2200
qu	-2201
OOK	-2202
▁Me	-2203
▁거의	-2204
▁만드	-2205
▁중독	-2206
▁️️	-2207
▁Can	-2208
▁HER	-2209
▁예쁘고	-2210
▁supp	-2211
▁마지막에	-2212
▁Korea	-2213
▁ᄏᄏᄏᄏᄏᄏᄏᄏᄏᄏᄏ	-2214
ge	-2215
▁윤	-2216
▁찰	-2217
▁체	-2218
▁합	-2219
같이	-2220
놓고	-2221
생각	-2222
ian	-2223
ich	-2224
▁ju	-2225
▁들을	-2226
▁어울	-2227
haha	-2228
▁black	-2229
었던	-2230
▁In	-2231
▁cố	-2232
▁가변	-2233
▁선물	-2234
▁아주	-2235
▁위로	-2236
▁기다렸	-2237
▁노래도	-2238
▁Jong	-2239
opular	-2240
▁English	-2241
▁Giselle	-2242
sh	-2243
▁챙	-2244
❤❤	-2245
남자	-2246
리가	-2247
시네	-2248
좋다	-2249
ces	-2250
▁AM	-2251
▁SH	-2252
▁wr	-2253
▁노랭	-2254
▁말투	-2255
▁애들	-2256
▁ent	-2257
▁노래를	-2258
▁있어서	-2259
▁That	-2260
▁립제이님	-2261
▁bagus	-2262
▁Everyone	-2263
ᄐᄐ	-2264
▁💜	-2265
▁Om	-2266
▁영어	-2267
▁이미	-2268
▁😂😂	-2269
이라는	-2270
ella	-2271
espa	-2272
▁min	-2273
▁곽튜브	-2274
▁스우파	-2275
▁역대급	-2276
▁있어요	-2277
▁5:00	-2278
ann	-2279
▁ap	-2280
▁인형	-2281
▁현실	-2282
eeee	-2283
▁ker	-2284
▁스토리	-2285
드립니다	-2286
▁lupa	-2287
▁옆	-2288
리즈	-2289
어울	-2290
eun	-2291
▁겨울	-2292
▁말을	-2293
▁혹시	-2294
cept	-2295
▁hum	-2296
▁떨어지	-2297
ating	-2298
ually	-2299
▁hair	-2300
▁사람들이	-2301
gether	-2302
▁ningning	-2303
IR	-2304
없는	-2305
으신	-2306
정이	-2307
줘요	-2308
aby	-2309
oxo	-2310
▁SU	-2311
▁따뜻	-2312
▁따라	-2313
▁레오	-2314
▁부르	-2315
▁킹받	-2316
고싶다	-2317
▁off	-2318
▁부럽다	-2319
▁doing	-2320
▁since	-2321
▁dengan	-2322
▁episode	-2323
OP	-2324
▁낙	-2325
ười	-2326
▁케미	-2327
▁put	-2328
▁언제나	-2329
ᅲᅲᅲᅲᅲ	-2330
▁Semangat	-2331
튜버	-2332
▁Al	-2333
▁부러	-2334
▁심장	-2335
ason	-2336
▁Why	-2337
▁잘하고	-2338
anyak	-2339
▁agre	-2340
▁outf	-2341
▁same	-2342
▁word	-2343
▁귀여워요	-2344
▁under	-2345
▁together	-2346
▁검	-2347
▁환	-2348
인거	-2349
▁BE	-2350
▁RE	-2351
▁되는	-2352
▁프로	-2353
자마자	-2354
▁덕분에	-2355
▁행복한	-2356
▁What	-2357
▁visual	-2358
▁baekhyun	-2359
IE	-2360
둥이	-2361
페이	-2362
:40	-2363
aik	-2364
joy	-2365
▁vs	-2366
▁나올	-2367
▁인기	-2368
ions	-2369
▁김계란	-2370
▁생각이	-2371
▁JUNG	-2372
▁view	-2373
▁알았는데	-2374
▁making	-2375
▁another	-2376
21	-2377
로나	-2378
보이	-2379
fin	-2380
pop	-2381
▁Am	-2382
▁JK	-2383
ᄀᄏᄀᄏ	-2384
▁SEM	-2385
▁talk	-2386
▁winter	-2387
▁fighting	-2388
OS	-2389
▁욕	-2390
기에	-2391
봐도	-2392
었어	-2393
▁어린	-2394
▁hari	-2395
▁dance	-2396
▁lagunya	-2397
▁thought	-2398
ᄀᄀ	-2399
린다	-2400
을듯	-2401
▁Is	-2402
▁sl	-2403
▁몰랐	-2404
▁좋고	-2405
▁봤는데	-2406
▁최고의	-2407
▁kind	-2408
yy	-2409
▁ᄋ	-2410
▁밥	-2411
라니	-2412
aci	-2413
▁cu	-2414
▁봐도	-2415
▁사이	-2416
▁장난	-2417
▁사투리	-2418
♡♡♡♡	-2419
▁didn	-2420
▁응원합니다	-2421
▁Carats	-2422
운데	-2423
ica	-2424
ody	-2425
▁소주	-2426
▁옛날	-2427
▁편집	-2428
ward	-2429
▁보니까	-2430
💜💜💜💜	-2431
▁SONG	-2432
▁QUEEN	-2433
▁bangett	-2434
//	-2435
AP	-2436
멤버	-2437
😍😍	-2438
▁Sh	-2439
▁자꾸	-2440
aaaa	-2441
▁가수였	-2442
▁상윤쓰	-2443
▁아름다	-2444
▁영상이	-2445
▁전소미	-2446
▁disapp	-2447
iz	-2448
인드	-2449
▁와이	-2450
▁외국	-2451
pink	-2452
▁inv	-2453
▁sen	-2454
▁영상을	-2455
▁중국이	-2456
▁하는거	-2457
▁life	-2458
CE	-2459
▁밤	-2460
▁업	-2461
▁활	-2462
리카	-2463
일이	-2464
ise	-2465
▁어느	-2466
▁에이	-2467
했어요	-2468
▁Wow	-2469
▁app	-2470
▁bec	-2471
▁sty	-2472
?)	-2473
gu	-2474
▁댄	-2475
리네	-2476
ier	-2477
ino	-2478
▁MU	-2479
▁없어	-2480
▁힘내	-2481
ieve	-2482
▁rec	-2483
▁제대로	-2484
▁콜라보	-2485
▁talented	-2486
TS	-2487
aj	-2488
▁가능	-2489
▁먹고	-2490
▁왜이	-2491
▁음식	-2492
▁잘못	-2493
▁전화	-2494
▁어머니	-2495
ferent	-2496
▁người	-2497
▁somet	-2498
▁뭘	-2499
▁잊	-2500
▁클	-2501
▁헬	-2502
ᅮᅮᅮ	-2503
▁것도	-2504
▁위해	-2505
▁0:1	-2506
▁rel	-2507
▁박민석	-2508
inion	-2509
▁semua	-2510
▁사랑합니다	-2511
▁jangan	-2512
▁different	-2513
▁ᄃ	-2514
▁녹	-2515
겠지	-2516
레이	-2517
져요	-2518
치는	-2519
▁ly	-2520
▁공감	-2521
▁그럼	-2522
▁사고	-2523
▁스타	-2524
▁아님	-2525
▁조금	-2526
ever	-2527
▁어디서	-2528
▁이쁘다	-2529
▁BEST	-2530
▁come	-2531
▁then	-2532
▁Taeil	-2533
▁enjoy	-2534
▁singing	-2535
▁돼	-2536
▁잇	-2537
▁종	-2538
라면	-2539
했네	-2540
vel	-2541
▁주문	-2542
▁컨셉	-2543
iemp	-2544
▁식	-2545
▁희	-2546
님들	-2547
메라	-2548
번째	-2549
ail	-2550
▁개인	-2551
▁제로	-2552
amat	-2553
fore	-2554
▁기분이	-2555
▁이야기	-2556
려주세요	-2557
▁each	-2558
▁terus	-2559
▁jaehyun	-2560
▁컴	-2561
봐요	-2562
but	-2563
▁~~	-2564
▁ơi	-2565
▁분위	-2566
에서도	-2567
▁Ning	-2568
▁When	-2569
▁long	-2570
oyoung	-2571
UL	-2572
▁14	-2573
▁멋진	-2574
▁채널	-2575
▁But	-2576
▁fall	-2577
▁banyak	-2578
IM	-2579
ek	-2580
▁꿈	-2581
▁🤣	-2582
기다	-2583
지승	-2584
학교	-2585
▁괜찮	-2586
▁둘다	-2587
▁멋지	-2588
▁아들	-2589
▁gak	-2590
ernon	-2591
▁tell	-2592
▁봤습니다	-2593
▁inter	-2594
▁Jennie	-2595
12	-2596
니당	-2597
여서	-2598
har	-2599
▁다르	-2600
▁원래	-2601
▁힘든	-2602
▁His	-2603
▁노래는	-2604
▁마음이	-2605
▁....	-2606
▁fans	-2607
▁idol	-2608
▁stay	-2609
▁가변차로	-2610
▁bring	-2611
▁start	-2612
▁those	-2613
▁having	-2614
▁옷	-2615
건데	-2616
구만	-2617
워서	-2618
air	-2619
▁해도	-2620
▁thr	-2621
▁pagi	-2622
ᄏᄏᄏᄏᄏᄏᄏᄏᄏᄏᄏᄏᄏ	-2623
▁됐	-2624
▁흐	-2625
징어	-2626
asi	-2627
▁ow	-2628
▁닮았	-2629
▁좋았	-2630
▁gen	-2631
▁juga	-2632
▁before	-2633
ấy	-2634
▁글	-2635
▁길	-2636
해보	-2637
ITH	-2638
▁게임	-2639
▁결국	-2640
▁매일	-2641
▁멤버	-2642
▁뭐지	-2643
▁허팝	-2644
▁확실	-2645
▁2:2	-2646
▁Hae	-2647
▁sek	-2648
▁느낌이	-2649
▁세상에	-2650
▁EVER	-2651
▁Karina	-2652
▁videos	-2653
▁deserves	-2654
▁jungkook	-2655
▁something	-2656
르고	-2657
성이	-2658
수도	-2659
que	-2660
res	-2661
▁GO	-2662
▁MY	-2663
▁시청	-2664
▁지진	-2665
▁화장	-2666
onna	-2667
peci	-2668
▁sih	-2669
▁나중에	-2670
▁아직도	-2671
었습니다	-2672
▁WITH	-2673
▁live	-2674
▁para	-2675
▁doesn	-2676
▁years	-2677
ra	-2678
헉헉	-2679
:10	-2680
▁분들	-2681
▁저희	-2682
▁표현	-2683
▁los	-2684
▁quá	-2685
▁잘어울	-2686
▁udah	-2687
arious	-2688
▁denger	-2689
▁perform	-2690
▁ᄉ	-2691
▁붙	-2692
한게	-2693
▁SK	-2694
▁대구	-2695
▁세계	-2696
▁잘해	-2697
▁찰떡	-2698
사랑해	-2699
주셔서	-2700
지네요	-2701
하시고	-2702
하인드	-2703
▁tapi	-2704
▁lyric	-2705
▁members	-2706
JK	-2707
ọi	-2708
ito	-2709
▁má	-2710
▁만나	-2711
▁맨날	-2712
▁복귀	-2713
▁일이	-2714
▁최애	-2715
▁예쁘다	-2716
▁esta	-2717
▁hands	-2718
▁today	-2719
▁where	-2720
▁사랑스러워	-2721
▁Doyoung	-2722
▁끼	-2723
▁북	-2724
▁블	-2725
▁트	-2726
▁흔	-2727
겠어	-2728
된다	-2729
▁If	-2730
▁ON	-2731
▁말고	-2732
▁자라	-2733
▁천재	-2734
▁해서	-2735
▁🤣🤣	-2736
▁4:2	-2737
▁Hall	-2738
▁cool	-2739
▁rock	-2740
▁중대장이	-2741
▁dream	-2742
▁gonna	-2743
▁disappoint	-2744
IK	-2745
몇명	-2746
주고	-2747
했던	-2748
(?)	-2749
alu	-2750
▁ME	-2751
▁SM	-2752
▁나혼	-2753
▁자체	-2754
▁필요	-2755
▁own	-2756
▁카메라	-2757
▁홍지승	-2758
했습니다	-2759
annel	-2760
finit	-2761
▁dumb	-2762
▁high	-2763
▁보고싶다	-2764
▁right	-2765
!!!!!!!	-2766
▁Haechan	-2767
▁channel	-2768
▁concept	-2769
YA	-2770
▁꼬	-2771
로윈	-2772
정한	-2773
:50	-2774
▁cá	-2775
▁그때	-2776
▁상황	-2777
▁통신	-2778
▁학교	-2779
하지만	-2780
▁era	-2781
▁set	-2782
▁Just	-2783
▁full	-2784
▁Popular	-2785
▁Halloween	-2786
ᄏᄏᄏᄏᄏᄏᄏᄏᄏᄏᄏᄏᄏᄏ	-2787
▁탱	-2788
▁먹방	-2789
▁보이	-2790
▁아는	-2791
▁안녕	-2792
▁케이	-2793
▁할때	-2794
▁ada	-2795
▁old	-2796
▁끝까지	-2797
▁사이다	-2798
▁하면서	-2799
▁face	-2800
ongrat	-2801
▁Korean	-2802
ilarious	-2803
▁soloist	-2804
▁빵	-2805
▁암	-2806
▁잼	-2807
님과	-2808
로운	-2809
자나	-2810
조건	-2811
퀴즈	-2812
했어	-2813
ney	-2814
▁FA	-2815
▁같음	-2816
▁당연	-2817
▁사회	-2818
▁자연	-2819
갑니다	-2820
amos	-2821
▁Omg	-2822
▁esc	-2823
▁아닌가	-2824
▁Dumb	-2825
▁como	-2826
▁nice	-2827
▁todo	-2828
▁비하인드	-2829
▁support	-2830
AD	-2831
▁갔	-2832
▁은	-2833
▁잔	-2834
아가	-2835
thy	-2836
tle	-2837
▁Be	-2838
▁라고	-2839
겠지만	-2840
aven	-2841
▁ins	-2842
stand	-2843
▁taeyong	-2844
▁strawberry	-2845
AB	-2846
LO	-2847
▁틀	-2848
▁흑	-2849
▁👍	-2850
부분	-2851
하니	-2852
ooo	-2853
▁ph	-2854
▁반응	-2855
▁아재	-2856
▁장면	-2857
▁타이	-2858
▁회상	-2859
됩니다	-2860
▁???	-2861
▁sec	-2862
▁tak	-2863
▁그대로	-2864
▁시리즈	-2865
▁이쁘고	-2866
icken	-2867
▁last	-2868
▁mean	-2869
▁우리나라	-2870
▁HAHAH	-2871
▁addict	-2872
▁crying	-2873
▁enough	-2874
▁friend	-2875
▁찌	-2876
시티	-2877
어나	-2878
인듯	-2879
ông	-2880
▁19	-2881
▁:(	-2882
▁보라	-2883
▁음색	-2884
하셔야	-2885
ible	-2886
▁대대장	-2887
▁제로투	-2888
▁하는데	-2889
acter	-2890
▁2021	-2891
▁baby	-2892
▁vote	-2893
▁wins	-2894
▁아저씨들	-2895
▁stage	-2896
▁lyrics	-2897
▁series	-2898
▁Favorite	-2899
▁Jeonghan	-2900
▁hilarious	-2901
▁ᄏᄏᄏᄏᄏᄏᄏᄏᄏᄏᄏᄏ	-2902
상훈	-2903
재밌	-2904
://	-2905
:30	-2906
▁AL	-2907
▁돌려	-2908
▁부분	-2909
▁와우	-2910
ttps	-2911
▁Kim	-2912
▁mat	-2913
▁우리칠	-2914
▁0:00	-2915
▁kore	-2916
▁고마워요	-2917
▁Fighting	-2918
▁character	-2919
ᄐᄏ	-2920
▁갓	-2921
▁죄	-2922
난다	-2923
▁WE	-2924
▁hy	-2925
▁mà	-2926
▁가슴	-2927
▁유쾌	-2928
▁자컨	-2929
▁전부	-2930
▁탱구	-2931
보고싶	-2932
봤는데	-2933
jeun	-2934
list	-2935
▁WIN	-2936
▁Kook	-2937
▁mark	-2938
iempre	-2939
▁Black	-2940
▁sangat	-2941
UM	-2942
ft	-2943
ᄆᄎ	-2944
▁답	-2945
▁빛	-2946
시아	-2947
IGH	-2948
led	-2949
▁무대	-2950
▁썸넬	-2951
▁연예	-2952
▁이젠	-2953
▁장구	-2954
▁leg	-2955
▁여러분	-2956
▁유튜버	-2957
iting	-2958
▁comp	-2959
▁mucho	-2960
▁opinion	-2961
▁actually	-2962
ID	-2963
ro	-2964
▁숨	-2965
스타	-2966
oth	-2967
ình	-2968
▁00	-2969
▁강호	-2970
▁부탁	-2971
;;;;	-2972
▁땡깡님	-2973
▁무조건	-2974
▁vocal	-2975
▁words	-2976
ED	-2977
▁극	-2978
▁맘	-2979
▁빼	-2980
▁짐	-2981
같아	-2982
봐야	-2983
여자	-2984
이쁘	-2985
ime	-2986
▁iu	-2987
▁웃김	-2988
▁정국	-2989
▁정보	-2990
▁지나	-2991
정도면	-2992
▁mau	-2993
▁muy	-2994
▁모습이	-2995
▁ador	-2996
▁레오제이	-2997
▁break	-2998
▁https	-2999
▁agrees	-3000
▁referen	-3001
ᅡᅡ	-3002
▁토	-3003
▁투	-3004
▁🥰	-3005
구마	-3006
다면	-3007
모습	-3008
졌네	-3009
:33	-3010
oll	-3011
ppa	-3012
▁PR	-3013
▁가자	-3014
▁먹어	-3015
▁중요	-3016
바람만	-3017
▁wonder	-3018
TH	-3019
▁밝	-3020
▁책	-3021
▁휴	-3022
력이	-3023
지게	-3024
친구	-3025
eek	-3026
ini	-3027
▁25	-3028
▁Im	-3029
▁Re	-3030
▁약간	-3031
▁어제	-3032
▁지젤	-3033
▁챙겨	-3034
▁추천	-3035
▁KJK	-3036
▁huh	-3037
▁같아서	-3038
▁코로나	-3039
henle	-3040
ostum	-3041
▁vibe	-3042
▁있었는데	-3043
▁encant	-3044
▁deserve	-3045
▁*	-3046
▁까	-3047
▁왠	-3048
▁콘	-3049
스가	-3050
💚💚	-3051
ene	-3052
▁40	-3053
▁HE	-3054
▁ac	-3055
▁미쳐	-3056
▁사라	-3057
▁설명	-3058
▁아버	-3059
▁없네	-3060
ALLY	-3061
▁<33	-3062
▁LET	-3063
▁rap	-3064
▁사람은	-3065
▁정한이	-3066
▁총몇명	-3067
▁care	-3068
하셨습니다	-3069
▁heard	-3070
▁vibes	-3071
▁healthy	-3072
▁understand	-3073
II	-3074
▁ب	-3075
▁돋	-3076
▁빡	-3077
▁웅	-3078
▁폐	-3079
감사	-3080
대박	-3081
먹고	-3082
민국	-3083
hae	-3084
min	-3085
▁ok	-3086
▁다행	-3087
▁본방	-3088
▁없이	-3089
스러운	-3090
십니다	-3091
▁mom	-3092
▁있으면	-3093
iously	-3094
▁heaven	-3095
▁singer	-3096
▁sounds	-3097
))	-3098
ượ	-3099
▁킬	-3100
나네	-3101
많이	-3102
즈니	-3103
iii	-3104
▁광고	-3105
▁성공	-3106
▁아쉽	-3107
▁애기	-3108
▁일반	-3109
에서는	-3110
▁Bar	-3111
▁its	-3112
▁wow	-3113
▁재밌다	-3114
mente	-3115
▁Jeon	-3116
▁chicken	-3117
▁definit	-3118
HH	-3119
kk	-3120
ti	-3121
▁면	-3122
▁썰	-3123
▁컸	-3124
나게	-3125
양이	-3126
127	-3127
ION	-3128
ado	-3129
▁ve	-3130
▁신곡	-3131
건가요	-3132
드려요	-3133
때문에	-3134
하시는	-3135
EREN	-3136
anna	-3137
▁fav	-3138
▁son	-3139
▁들어도	-3140
▁웃기네	-3141
▁하지만	-3142
▁한국어	-3143
▁아프리카	-3144
▁views	-3145
▁expect	-3146
▁ᄏᄏᄏᄏᄏᄏᄏᄏᄏᄏᄏᄏᄏ	-3147
TT	-3148
ᅲᅮ	-3149
느낌	-3150
렸다	-3151
아빠	-3152
이뻐	-3153
▁공격	-3154
▁먹는	-3155
▁명작	-3156
▁북한	-3157
▁사용	-3158
▁알아	-3159
▁하시	-3160
▁헤이	-3161
는거야	-3162
을까요	-3163
oney	-3164
▁tho	-3165
▁소름돋	-3166
▁conf	-3167
▁하영이가	-3168
▁행복하게	-3169
▁EVERY	-3170
▁human	-3171
▁ᅲᅲᅲᅲᅲ	-3172
io	-3173
▁>	-3174
▁뿌	-3175
▁샤	-3176
▁16	-3177
▁뚜껑	-3178
▁서로	-3179
▁이래	-3180
▁절대	-3181
▁찾아	-3182
TING	-3183
ente	-3184
▁All	-3185
▁PER	-3186
▁ind	-3187
▁boys	-3188
▁xoxo	-3189
▁ᄒᄒᄒᄒ	-3190
▁감사해요	-3191
ᅲᅲᅲᅲᅲᅲ	-3192
▁feeling	-3193
▁hermosa	-3194
▁someone	-3195
nn	-3196
ão	-3197
시즌	-3198
었네	-3199
💕💕	-3200
:35	-3201
oss	-3202
▁17	-3203
▁Oh	-3204
▁ey	-3205
▁fl	-3206
▁그린	-3207
▁양갈	-3208
▁잘봤	-3209
▁캐럿	-3210
HYUN	-3211
alah	-3212
▁tre	-3213
▁아무리	-3214
▁오징어	-3215
▁유퀴즈	-3216
andom	-3217
▁Josh	-3218
▁Suka	-3219
▁week	-3220
▁though	-3221
▁siempre	-3222
................	-3223
te	-3224
▁루	-3225
▁찢	-3226
▁패	-3227
거나	-3228
낭비	-3229
라마	-3230
부러	-3231
뻘맨	-3232
시절	-3233
이트	-3234
해라	-3235
awa	-3236
▁1.	-3237
▁DO	-3238
▁EN	-3239
▁YG	-3240
▁du	-3241
▁gl	-3242
▁vi	-3243
▁것을	-3244
▁그게	-3245
▁되게	-3246
▁연지	-3247
▁존경	-3248
▁aja	-3249
▁bop	-3250
▁cal	-3251
▁fel	-3252
▁sim	-3253
▁sur	-3254
▁김상훈	-3255
▁보는데	-3256
▁싶어요	-3257
▁최고다	-3258
ANGAT	-3259
▁down	-3260
▁kpop	-3261
▁kasih	-3262
▁times	-3263
~♡	-3264
님께	-3265
이터	-3266
있어	-3267
ave	-3268
oke	-3269
ược	-3270
▁내용	-3271
▁매번	-3272
▁사건	-3273
▁상상	-3274
▁선생	-3275
▁있음	-3276
▁하지	-3277
봅니다	-3278
였는데	-3279
좋아요	-3280
▁hel	-3281
▁super	-3282
▁handsome	-3283
pr	-3284
uv	-3285
▁청	-3286
멜로	-3287
ana	-3288
▁그만	-3289
▁두부	-3290
▁무엇	-3291
▁생겼	-3292
▁지내	-3293
▁페이	-3294
cion	-3295
▁exc	-3296
▁mag	-3297
▁más	-3298
▁mọi	-3299
▁개웃겨	-3300
▁킹받네	-3301
jeuni	-3302
▁meng	-3303
▁name	-3304
▁가수였지	-3305
▁대한민국	-3306
▁에이치원	-3307
▁visuals	-3308
너무너무너무너무	-3309
fe	-3310
ía	-3311
▁각	-3312
▁곳	-3313
가지	-3314
수를	-3315
치고	-3316
하며	-3317
학생	-3318
:34	-3319
:45	-3320
aro	-3321
▁DE	-3322
▁대체	-3323
▁듣는	-3324
▁본인	-3325
▁사귀	-3326
▁실제	-3327
▁안돼	-3328
▁어릴	-3329
▁웅장	-3330
▁중간	-3331
▁진렬	-3332
ikin	-3333
ried	-3334
▁isn	-3335
▁떨어져	-3336
▁스트레	-3337
▁아이키	-3338
▁both	-3339
▁stan	-3340
하겠습니다	-3341
▁costum	-3342
▁finally	-3343
▁without	-3344
▁깜	-3345
▁낳	-3346
▁판	-3347
▁황	-3348
▁WH	-3349
▁ob	-3350
▁그녀	-3351
▁여행	-3352
▁제목	-3353
ical	-3354
▁kalo	-3355
▁smile	-3356
▁through	-3357
▁waiting	-3358
US	-3359
거지	-3360
길래	-3361
까스	-3362
찌다	-3363
:02	-3364
mao	-3365
▁35	-3366
▁국가	-3367
▁내려	-3368
▁더빙	-3369
▁만든	-3370
▁싶어	-3371
▁아침	-3372
▁영원	-3373
▁전에	-3374
▁준비	-3375
하니까	-3376
OOOO	-3377
▁lik	-3378
▁들으면	-3379
▁멋있다	-3380
▁양갈래	-3381
▁Haha	-3382
▁samp	-3383
▁wanna	-3384
▁looking	-3385
TY	-3386
▁육	-3387
▁익	-3388
자가	-3389
자리	-3390
old	-3391
▁Te	-3392
▁VO	-3393
▁pu	-3394
▁rồ	-3395
▁가득	-3396
▁않는	-3397
▁않았	-3398
▁영국	-3399
▁우한	-3400
▁존재	-3401
▁하이	-3402
▁활동	-3403
LEAS	-3404
ones	-3405
oose	-3406
outu	-3407
yang	-3408
▁노랭이	-3409
▁liat	-3410
▁mill	-3411
▁wish	-3412
▁대단하다	-3413
▁볼때마다	-3414
ww	-3415
òn	-3416
▁뛰	-3417
▁훨	-3418
머리	-3419
석이	-3420
적이	-3421
최고	-3422
▁좋음	-3423
▁특히	-3424
inta	-3425
ited	-3426
▁big	-3427
▁itu	-3428
▁pls	-3429
▁같네요	-3430
▁Keep	-3431
▁được	-3432
▁bener	-3433
▁adorable	-3434
IL	-3435
▁밀	-3436
▁창	-3437
▁효	-3438
같다	-3439
대가	-3440
르는	-3441
분전	-3442
앨범	-3443
hhh	-3444
▁có	-3445
▁đi	-3446
▁거짓	-3447
▁나의	-3448
▁명곡	-3449
▁물론	-3450
▁보다	-3451
▁성격	-3452
▁즐거	-3453
▁하늘	-3454
▁ver	-3455
▁스타일	-3456
▁이유가	-3457
▁잘생겼	-3458
▁잘하는	-3459
▁쵸단님	-3460
▁Rain	-3461
▁prom	-3462
▁comed	-3463
▁guest	-3464
▁SEMANGAT	-3465
ᄏᄏᄏᄏᄏᄏᄏᄏᄏᄏᄏᄏᄏᄏᄏ	-3466
ᄅᄏ	-3467
▁걱	-3468
▁능	-3469
▁망	-3470
기고	-3471
느라	-3472
대체	-3473
식이	-3474
:48	-3475
ahh	-3476
tra	-3477
uly	-3478
▁Ed	-3479
▁HA	-3480
▁NE	-3481
▁mn	-3482
▁근육	-3483
▁내내	-3484
▁대파	-3485
▁되어	-3486
▁엔딩	-3487
▁조회	-3488
이라도	-3489
▁SHE	-3490
▁Sel	-3491
▁cap	-3492
▁car	-3493
▁외국인	-3494
▁입니다	-3495
▁lind	-3496
▁가비언니	-3497
▁하영이는	-3498
▁bikin	-3499
▁favor	-3500
▁group	-3501
▁untuk	-3502
▁Jangan	-3503
▁바람만바람만	-3504
▁believe	-3505
dd	-3506
yu	-3507
▁é	-3508
▁م	-3509
▁끄	-3510
▁러	-3511
▁용	-3512
▁접	-3513
건지	-3514
엄마	-3515
💗💗	-3516
:13	-3517
▁AS	-3518
▁그거	-3519
▁소중	-3520
▁시어	-3521
▁쓰는	-3522
▁이것	-3523
▁저기	-3524
들에게	-3525
랍니다	-3526
스크림	-3527
을텐데	-3528
한다고	-3529
ated	-3530
iest	-3531
▁EXO	-3532
▁anh	-3533
▁때마다	-3534
▁hend	-3535
▁team	-3536
▁Faker	-3537
▁주문하셔야	-3538
PA	-3539
▁п	-3540
▁센	-3541
▁징	-3542
▁향	-3543
▁흥	-3544
보여	-3545
인다	-3546
프님	-3547
:04	-3548
▁라면	-3549
▁매우	-3550
▁보게	-3551
▁부터	-3552
▁수학	-3553
▁애니	-3554
▁여전	-3555
▁이형	-3556
▁제이	-3557
▁제티	-3558
▁조심	-3559
▁컴백	-3560
▁한다	-3561
▁Ind	-3562
▁나오면	-3563
▁나혼산	-3564
▁연예인	-3565
▁dari	-3566
▁대박이다	-3567
▁재밌어요	-3568
▁aespa	-3569
ôi	-3570
▁런	-3571
만원	-3572
보자	-3573
사수	-3574
스도	-3575
:42	-3576
aen	-3577
amn	-3578
▁CH	-3579
▁Pl	-3580
▁ال	-3581
▁ᄉᄇ	-3582
▁계단	-3583
▁놀랍	-3584
▁미소	-3585
▁밖에	-3586
▁시원	-3587
▁안나	-3588
▁있고	-3589
▁출연	-3590
▁하셨	-3591
있는데	-3592
~~^^	-3593
▁col	-3594
▁nha	-3595
▁뱀파이	-3596
▁윈터는	-3597
▁팔씨름	-3598
onest	-3599
owing	-3600
▁THAT	-3601
▁help	-3602
▁sure	-3603
▁아름다운	-3604
▁좋겠어요	-3605
▁releas	-3606
▁jeonghan	-3607
10	-3608
gy	-3609
ks	-3610
ết	-3611
리지	-3612
었음	-3613
인트	-3614
000	-3615
:16	-3616
:52	-3617
END	-3618
rap	-3619
▁ah	-3620
▁꿀정	-3621
▁노력	-3622
▁말씀	-3623
▁본업	-3624
▁선수	-3625
▁일단	-3626
▁존버	-3627
▁폐급	-3628
▁귀여움	-3629
▁모르는	-3630
▁시즈니	-3631
▁예쁘게	-3632
▁할로윈	-3633
acias	-3634
youtu	-3635
▁danc	-3636
▁luck	-3637
▁seen	-3638
▁레전드다	-3639
▁와이파이	-3640
▁point	-3641
aranghae	-3642
▁hendery	-3643
gr	-3644
ất	-3645
▁색	-3646
▁쉽	-3647
마디	-3648
있다	-3649
줘야	-3650
▁마무	-3651
▁삐쭈	-3652
▁예전	-3653
▁우유	-3654
리는거	-3655
▁pas	-3656
▁saw	-3657
▁emot	-3658
▁prod	-3659
▁semu	-3660
▁기다리고	-3661
▁feels	-3662
▁scary	-3663
▁coming	-3664
▁little	-3665
▁things	-3666
▁english	-3667
ho	-3668
▁굿	-3669
▁훌	-3670
♥♥	-3671
말이	-3672
예쁘	-3673
이이	-3674
졌다	-3675
좋은	-3676
치킨	-3677
캠프	-3678
:15	-3679
:38	-3680
;;;	-3681
oso	-3682
▁TE	-3683
▁가면	-3684
▁나를	-3685
▁낙하	-3686
▁실수	-3687
▁웃긴	-3688
▁음료	-3689
와중에	-3690
reci	-3691
▁Ayo	-3692
▁ket	-3693
▁그동안	-3694
▁드라마	-3695
▁사랑이	-3696
▁coll	-3697
▁지금까지	-3698
▁gives	-3699
▁shows	-3700
▁hahaha	-3701
▁selalu	-3702
20	-3703
FE	-3704
▁쳐	-3705
리면	-3706
영지	-3707
요미	-3708
이상	-3709
eno	-3710
▁BL	-3711
▁ni	-3712
▁보러	-3713
▁이리	-3714
스럽게	-3715
잖아요	-3716
KOOK	-3717
ched	-3718
ower	-3719
ying	-3720
▁How	-3721
▁돌아와	-3722
▁좋은데	-3723
원합니다	-3724
agine	-3725
young	-3726
▁NING	-3727
▁compl	-3728
▁Barney	-3729
▁giving	-3730
▁definitely	-3731
▁늦	-3732
▁쏘	-3733
▁폭	-3734
디오	-3735
미쳤	-3736
어주	-3737
조합	-3738
▁hu	-3739
▁ro	-3740
▁관심	-3741
▁그저	-3742
▁꿀잼	-3743
▁못참	-3744
▁받아	-3745
▁부대	-3746
▁아형	-3747
▁해요	-3748
▁COM	-3749
▁SKT	-3750
▁eat	-3751
▁job	-3752
▁las	-3753
▁rồi	-3754
▁tid	-3755
▁나와서	-3756
▁도대체	-3757
▁보여주	-3758
▁이번에	-3759
▁이번편	-3760
▁잘보고	-3761
▁eyes	-3762
▁game	-3763
▁tant	-3764
▁contin	-3765
▁xiaojun	-3766
SS	-3767
▁몽	-3768
▁흘	-3769
그래	-3770
보라	-3771
상승	-3772
시키	-3773
..!	-3774
IST	-3775
ami	-3776
▁As	-3777
▁그랬	-3778
▁맞다	-3779
▁봐야	-3780
▁아내	-3781
▁아닐	-3782
▁않고	-3783
▁어케	-3784
▁의미	-3785
▁졸귀	-3786
▁충격	-3787
▁한명	-3788
목소리	-3789
보는데	-3790
하다가	-3791
했으면	-3792
▁các	-3793
▁sat	-3794
▁대단한	-3795
▁떨어질	-3796
▁무슨일	-3797
▁부모님	-3798
▁슈뻘맨	-3799
▁재밌어	-3800
onton	-3801
▁pero	-3802
▁립제이쌤	-3803
▁forget	-3804
▁moment	-3805
▁subtitles	-3806
tw	-3807
▁멘	-3808
같음	-3809
액션	-3810
을거	-3811
초에	-3812
ILL	-3813
▁IM	-3814
▁눈이	-3815
▁미모	-3816
▁아기	-3817
▁알려	-3818
▁중에	-3819
😭😭😭	-3820
abel	-3821
cess	-3822
▁ALL	-3823
▁Har	-3824
▁apa	-3825
▁ear	-3826
▁như	-3827
▁sad	-3828
▁너무나	-3829
▁예뻐요	-3830
▁유치원	-3831
▁최고야	-3832
▁cand	-3833
▁este	-3834
▁oppa	-3835
▁좋습니다	-3836
▁PLEAS	-3837
▁debut	-3838
▁không	-3839
▁collab	-3840
▁ending	-3841
▁끊	-3842
▁뜨	-3843
▁짧	-3844
▁테	-3845
가고	-3846
스로	-3847
:08	-3848
:55	-3849
ble	-3850
kwk	-3851
▁2.	-3852
▁??	-3853
▁AA	-3854
▁가끔	-3855
▁그림	-3856
▁댄서	-3857
▁몇번	-3858
▁생일	-3859
▁싶은	-3860
▁잇섭	-3861
▁포기	-3862
▁화사	-3863
때부터	-3864
ebih	-3865
leep	-3866
less	-3867
▁ARE	-3868
▁Not	-3869
▁Now	-3870
▁nào	-3871
▁wat	-3872
▁허팝님	-3873
essed	-3874
▁SOLO	-3875
▁THAN	-3876
▁past	-3877
ations	-3878
ᅲᅲᅲᅲᅲᅲᅲ	-3879
▁legend	-3880
34	-3881
UR	-3882
то	-3883
ữa	-3884
▁)	-3885
▁^	-3886
▁래	-3887
▁탈	-3888
▁훈	-3889
리를	-3890
메이	-3891
에선	-3892
우는	-3893
이란	-3894
WOO	-3895
ute	-3896
▁RO	-3897
▁걱정	-3898
▁그걸	-3899
▁어쩌	-3900
▁인정	-3901
▁일상	-3902
▁형이	-3903
겠는데	-3904
NING	-3905
appy	-3906
irth	-3907
▁Don	-3908
▁kes	-3909
▁skt	-3910
▁분대장	-3911
esome	-3912
▁Dino	-3913
▁craz	-3914
▁lets	-3915
▁mình	-3916
▁그린캠프	-3917
▁뱀파이어	-3918
▁KEREN	-3919
▁chore	-3920
▁level	-3921
▁Thanks	-3922
▁talking	-3923
zz	-3924
▁с	-3925
▁갖	-3926
▁골	-3927
▁딩	-3928
▁멀	-3929
▁벗	-3930
▁펄	-3931
들과	-3932
방송	-3933
아닌	-3934
정말	-3935
패스	-3936
:27	-3937
ORE	-3938
ata	-3939
eee	-3940
the	-3941
~!!	-3942
▁aa	-3943
▁가정	-3944
▁감정	-3945
▁그것	-3946
▁까지	-3947
▁동네	-3948
▁라임	-3949
▁리니	-3950
▁미안	-3951
▁실화	-3952
▁어려	-3953
▁어쩔	-3954
▁입덕	-3955
▁좋으	-3956
보면서	-3957
ANTE	-3958
REAM	-3959
endo	-3960
ired	-3961
▁Chr	-3962
▁Str	-3963
▁bar	-3964
▁kay	-3965
▁reg	-3966
▁top	-3967
▁yuk	-3968
▁눈물이	-3969
▁들어왔	-3970
▁올려주	-3971
▁통신사	-3972
isung	-3973
▁bias	-3974
▁kill	-3975
▁스트레스	-3976
unning	-3977
▁creat	-3978
▁truly	-3979
▁remind	-3980
?"	-3981
ju	-3982
my	-3983
ym	-3984
▁곧	-3985
▁롤	-3986
▁폰	-3987
가비	-3988
베리	-3989
씨가	-3990
장이	-3991
:12	-3992
ITE	-3993
ulu	-3994
▁-1	-3995
▁CU	-3996
▁ed	-3997
▁거기	-3998
▁꿀팁	-3999
▁다니	-4000
▁달라	-4001
▁되고	-4002
▁분명	-4003
▁웃는	-4004
▁인싸	-4005
▁조작	-4006
▁초밥	-4007
▁터보	-4008
는거지	-4009
orge	-4010
ᄒᄒᄒᄒ	-4011
▁cam	-4012
▁ken	-4013
▁오랜만	-4014
▁잘한다	-4015
▁재밌는	-4016
ouple	-4017
▁Yang	-4018
▁ener	-4019
▁gets	-4020
▁lmao	-4021
▁fandom	-4022
▁nctzen	-4023
▁performance	-4024
▁긴	-4025
▁쓴	-4026
▁홀	-4027
네여	-4028
되고	-4029
아버	-4030
테일	-4031
ild	-4032
▁JE	-4033
▁LA	-4034
▁Ne	-4035
▁mo	-4036
▁ᄆᄎ	-4037
▁딩고	-4038
▁미니	-4039
▁바뀌	-4040
▁솔로	-4041
▁자식	-4042
▁평생	-4043
iiii	-4044
▁eng	-4045
▁mej	-4046
▁sal	-4047
▁sig	-4048
▁당신은	-4049
▁마음에	-4050
▁주세요	-4051
▁쯔양님	-4052
▁!!!!	-4053
▁Rock	-4054
▁enak	-4055
▁kook	-4056
▁sooo	-4057
▁건강하고	-4058
▁이정도면	-4059
▁These	-4060
▁girls	-4061
▁안녕하세요	-4062
▁Vernon	-4063
▁anyone	-4064
▁outfit	-4065
pecially	-4066
▁Congrat	-4067
▁JUNGKOOK	-4068
ta	-4069
▁á	-4070
▁뇌	-4071
▁범	-4072
▁빌	-4073
▁쇼	-4074
▁쌍	-4075
▁플	-4076
들아	-4077
보기	-4078
영님	-4079
오래	-4080
amu	-4081
nah	-4082
▁그는	-4083
▁낭비	-4084
▁동안	-4085
▁버논	-4086
▁별로	-4087
▁훌륭	-4088
귀엽다	-4089
분들이	-4090
으로도	-4091
이크업	-4092
akak	-4093
most	-4094
▁bor	-4095
▁cho	-4096
▁god	-4097
▁sus	-4098
▁무서운	-4099
▁언니들	-4100
▁엔시티	-4101
▁완벽한	-4102
▁있네요	-4103
▁좋아서	-4104
▁파이팅	-4105
▁햄머니	-4106
aemin	-4107
▁came	-4108
▁pres	-4109
▁soot	-4110
▁Happy	-4111
▁사랑스러운	-4112
▁아이스크림	-4113
▁saying	-4114
▁Selamat	-4115
▁blackpink	-4116
:)	-4117
SE	-4118
ús	-4119
▁в	-4120
▁쌩	-4121
▁씨	-4122
니깐	-4123
이로	-4124
있네	-4125
자체	-4126
:54	-4127
aga	-4128
▁27	-4129
▁Go	-4130
▁것이	-4131
▁꾸삐	-4132
▁당황	-4133
▁뭔지	-4134
▁믿고	-4135
▁않아	-4136
▁앨범	-4137
▁있나	-4138
▁자세	-4139
▁주는	-4140
▁즐겁	-4141
▁지켜	-4142
▁집에	-4143
love	-4144
▁Gab	-4145
▁exp	-4146
▁hae	-4147
▁hit	-4148
▁yet	-4149
▁마스크	-4150
▁멋있어	-4151
▁아닌데	-4152
▁알려주	-4153
▁웅장해	-4154
▁잘하네	-4155
▁처음에	-4156
▁확실히	-4157
avage	-4158
▁soon	-4159
▁extra	-4160
▁loved	-4161
▁trans	-4162
▁개인적으로	-4163
▁잘봤습니다	-4164
▁cancion	-4165
▁haechan	-4166
ôn	-4167
▁و	-4168
▁깔	-4169
▁꺼	-4170
▁님	-4171
▁묻	-4172
☆☆	-4173
세용	-4174
시켜	-4175
우리	-4176
하던	-4177
:07	-4178
:25	-4179
:36	-4180
ult	-4181
▁ak	-4182
▁ca	-4183
▁ku	-4184
▁남편	-4185
▁마치	-4186
▁수가	-4187
▁있지	-4188
️️️	-4189
ount	-4190
▁Ter	-4191
▁abs	-4192
▁cry	-4193
▁dec	-4194
▁res	-4195
▁ten	-4196
▁tet	-4197
▁고양이	-4198
▁무섭다	-4199
▁비슷한	-4200
▁언니가	-4201
▁얼굴이	-4202
▁영상은	-4203
▁올라오	-4204
▁우리는	-4205
▁이뻐요	-4206
▁케이티	-4207
ember	-4208
▁jong	-4209
▁본방사수	-4210
▁loves	-4211
orgeous	-4212
▁trying	-4213
▁vampir	-4214
▁outfits	-4215
▁dengerin	-4216
OK	-4217
▁‘	-4218
▁멈	-4219
▁워	-4220
▁젊	-4221
끼리	-4222
닝맨	-4223
도록	-4224
르게	-4225
리티	-4226
시락	-4227
여워	-4228
:32	-4229
ial	-4230
uck	-4231
▁NO	-4232
▁끝나	-4233
▁비밀	-4234
▁시절	-4235
▁헬스	-4236
로베리	-4237
onic	-4238
orus	-4239
oups	-4240
▁TAE	-4241
▁còn	-4242
▁mús	-4243
▁uni	-4244
▁vid	-4245
▁그렇고	-4246
▁디테일	-4247
▁리액션	-4248
▁분위기	-4249
▁오늘은	-4250
하시네요	-4251
nding	-4252
▁Solo	-4253
▁sent	-4254
▁아무것도	-4255
▁lebih	-4256
▁style	-4257
▁second	-4258
▁ᅲᅲᅲᅲᅲᅲ	-4259
▁angelic	-4260
.........	-4261
▁찬	-4262
▁택	-4263
걸로	-4264
근데	-4265
서트	-4266
아노	-4267
오오	-4268
:53	-4269
ple	-4270
you	-4271
▁ic	-4272
▁po	-4273
▁가는	-4274
▁누나	-4275
▁발음	-4276
▁엄여	-4277
▁없고	-4278
▁옆에	-4279
▁왠지	-4280
▁😍😍	-4281
았어요	-4282
었네요	-4283
있어요	-4284
ails	-4285
alam	-4286
▁BTS	-4287
▁luc	-4288
▁nữa	-4289
▁도하영	-4290
▁생각을	-4291
▁없어서	-4292
▁진짜로	-4293
▁짐종국	-4294
alian	-4295
▁0:01	-4296
▁Best	-4297
▁must	-4298
▁같습니다	-4299
▁똑똑하고	-4300
ertain	-4301
friend	-4302
▁power	-4303
▁preci	-4304
▁confid	-4305
▁soothing	-4306
24	-4307
tu	-4308
▁z	-4309
▁ᄀ	-4310
▁곱	-4311
▁끌	-4312
▁억	-4313
겠죠	-4314
기만	-4315
상도	-4316
스런	-4317
어어	-4318
예뻐	-4319
인직	-4320
쩐다	-4321
:14	-4322
:31	-4323
:44	-4324
ase	-4325
▁AR	-4326
▁Hw	-4327
▁Ok	-4328
▁가르	-4329
▁넘어	-4330
▁아가	-4331
▁저리	-4332
▁주제	-4333
▁태어	-4334
같아요	-4335
▁Per	-4336
▁kom	-4337
▁가지고	-4338
▁게스트	-4339
▁돌아왔	-4340
▁마무리	-4341
▁한국인	-4342
▁Miss	-4343
▁comf	-4344
▁미치겠다	-4345
▁아이유님	-4346
ANTENG	-4347
▁crazy	-4348
▁harus	-4349
▁surpr	-4350
▁until	-4351
▁acting	-4352
▁pernah	-4353
▁ᄏᄏᄏᄏᄏᄏᄏᄏᄏᄏᄏᄏᄏᄏ	-4354
LD	-4355
la	-4356
ới	-4357
▁к	-4358
▁논	-4359
▁쓸	-4360
▁잃	-4361
▁핑	-4362
동생	-4363
되면	-4364
래기	-4365
만한	-4366
속도	-4367
타닉	-4368
ENT	-4369
▁네가	-4370
▁멜로	-4371
▁뭔데	-4372
▁사는	-4373
▁살짝	-4374
▁생활	-4375
▁이분	-4376
jang	-4377
uvna	-4378
▁sor	-4379
▁vot	-4380
▁똑같이	-4381
▁보다가	-4382
▁아니냐	-4383
▁하네요	-4384
것같아요	-4385
더라구요	-4386
ograp	-4387
▁Also	-4388
▁Vamp	-4389
▁바랍니다	-4390
▁인직이형	-4391
▁kerja	-4392
▁night	-4393
▁sleep	-4394
▁couple	-4395
▁energy	-4396
▁honest	-4397
▁invite	-4398
▁nonton	-4399
▁season	-4400
AAAAAAAA	-4401
▁GANTENG	-4402
▁disappoints	-4403
vt	-4404
▁밑	-4405
▁엉	-4406
▁쭉	-4407
번호	-4408
시길	-4409
지를	-4410
cri	-4411
▁Do	-4412
▁Es	-4413
▁GU	-4414
▁Tr	-4415
▁er	-4416
▁남매	-4417
▁맞아	-4418
▁수준	-4419
▁않은	-4420
▁이후	-4421
▁집중	-4422
▁한편	-4423
해주는	-4424
deed	-4425
inya	-4426
▁cre	-4427
▁gue	-4428
▁này	-4429
▁tem	-4430
▁wom	-4431
▁귀여우	-4432
▁그런가	-4433
▁기다리	-4434
▁방법이	-4435
▁새로운	-4436
▁아니면	-4437
▁여전히	-4438
▁영지님	-4439
▁와중에	-4440
았습니다	-4441
▁FIGH	-4442
▁vers	-4443
▁yuta	-4444
▁너무좋다	-4445
▁떨어지는	-4446
▁아이유는	-4447
▁장삐쭈님	-4448
▁found	-4449
▁incre	-4450
▁which	-4451
oosebum	-4452
▁CARATS	-4453
▁PLEASE	-4454
▁happen	-4455
▁indeed	-4456
▁herself	-4457
▁subtitle	-4458
ệt	-4459
▁♥	-4460
▁씹	-4461
▁앉	-4462
▁히	-4463
사님	-4464
시죠	-4465
올라	-4466
으며	-4467
있고	-4468
자들	-4469
:03	-4470
:37	-4471
ima	-4472
ons	-4473
▁50	-4474
▁ᅳᅳ	-4475
▁감성	-4476
▁놀라	-4477
▁레고	-4478
▁맞는	-4479
▁속도	-4480
▁아닠	-4481
▁올려	-4482
▁저게	-4483
▁하네	-4484
▁회사	-4485
▁Any	-4486
▁LOL	-4487
▁Our	-4488
▁dad	-4489
▁eff	-4490
▁may	-4491
▁tau	-4492
▁갈수록	-4493
▁잘생겨	-4494
▁한국말	-4495
👍👍👍👍	-4496
otaro	-4497
uyang	-4498
~~~~~	-4499
▁food	-4500
▁slay	-4501
▁메이크업	-4502
▁민쩌미님	-4503
▁아이유의	-4504
icting	-4505
▁BLACK	-4506
▁THANK	-4507
irthday	-4508
▁seeing	-4509
▁appreci	-4510
▁million	-4511
▁addicting	-4512
RA	-4513
ày	-4514
▁깊	-4515
▁앜	-4516
▁월	-4517
가족	-4518
라이	-4519
보네	-4520
스터	-4521
시드	-4522
우유	-4523
줄알	-4524
지면	-4525
:59	-4526
ten	-4527
urn	-4528
▁고민	-4529
▁그의	-4530
▁서울	-4531
▁어찌	-4532
▁음원	-4533
▁주인	-4534
▁죽은	-4535
▁천사	-4536
보니까	-4537
웃기네	-4538
이지만	-4539
집니다	-4540
코패스	-4541
ling	-4542
▁Fin	-4543
▁mng	-4544
▁yaa	-4545
▁yes	-4546
▁고맙고	-4547
▁그런데	-4548
▁동영상	-4549
▁윈터가	-4550
▁이래서	-4551
▁있다는	-4552
▁하나도	-4553
▁CUTE	-4554
▁hace	-4555
▁luôn	-4556
▁아닌가요	-4557
▁진심으로	-4558
▁keras	-4559
▁likes	-4560
▁오징어게임	-4561
▁become	-4562
▁música	-4563
▁FIGHTING	-4564
▁gorgeous	-4565
VS	-4566
me	-4567
ᄉᄏ	-4568
▁н	-4569
대한	-4570
마비	-4571
신거	-4572
👏👏	-4573
▁21	-4574
▁Gr	-4575
▁❤❤	-4576
▁귀염	-4577
▁내일	-4578
▁대화	-4579
▁오른	-4580
▁오우	-4581
▁웃고	-4582
▁음수	-4583
▁직접	-4584
었으면	-4585
지말고	-4586
apan	-4587
ines	-4588
▁ayo	-4589
▁flo	-4590
▁sha	-4591
▁try	-4592
▁ᄃᄃᄃ	-4593
▁개소리	-4594
▁어머님	-4595
▁한마디	-4596
▁MUCH	-4597
▁beat	-4598
▁재미있게	-4599
zuyang	-4600
▁.....	-4601
▁cinta	-4602
▁stair	-4603
▁Hahaha	-4604
▁STREAM	-4605
▁comment	-4606
oosebumps	-4607
▁NINGNING	-4608
▁hahahaha	-4609
▁semuanya	-4610
▁seriously	-4611
▁ي	-4612
▁탄	-4613
▁핸	-4614
가수	-4615
먹는	-4616
버리	-4617
버린	-4618
영철	-4619
있음	-4620
주얼	-4621
할수	-4622
함이	-4623
🔥🔥	-4624
:17	-4625
:26	-4626
AND	-4627
ONE	-4628
man	-4629
med	-4630
ors	-4631
uma	-4632
▁Cố	-4633
▁gh	-4634
▁na	-4635
▁결론	-4636
▁니가	-4637
▁대결	-4638
▁순이	-4639
▁재밋	-4640
▁전설	-4641
▁주변	-4642
▁찍어	-4643
▁처럼	-4644
▁한거	-4645
▁했던	-4646
▁훨씬	-4647
나네요	-4648
akan	-4649
ante	-4650
▁런닝맨	-4651
▁마음을	-4652
▁만드는	-4653
▁아니다	-4654
▁아진짜	-4655
▁애들이	-4656
▁왕뚜껑	-4657
▁콘서트	-4658
chool	-4659
▁hold	-4660
▁사랑한다	-4661
AO	-4662
UU	-4663
▁뭉	-4664
▁짓	-4665
▁퐁	-4666
간다	-4667
대의	-4668
듯이	-4669
라스	-4670
릭터	-4671
명이	-4672
부럽	-4673
시기	-4674
시에	-4675
우고	-4676
즈아	-4677
한번	-4678
:28	-4679
▁oh	-4680
▁놀랐	-4681
▁들고	-4682
▁래퍼	-4683
▁모자	-4684
▁분이	-4685
▁안무	-4686
▁알게	-4687
▁없음	-4688
▁영창	-4689
▁이길	-4690
▁잠깐	-4691
▁좋네	-4692
▁초대	-4693
▁해피	-4694
olut	-4695
▁201	-4696
▁GOO	-4697
▁Kun	-4698
▁루시드	-4699
▁못참지	-4700
▁무서워	-4701
▁사랑을	-4702
▁아시는	-4703
▁완벽해	-4704
▁이분들	-4705
▁이해가	-4706
▁조회수	-4707
▁Baek	-4708
▁Good	-4709
▁THEY	-4710
▁fore	-4711
▁true	-4712
▁왜이렇게	-4713
▁Harry	-4714
▁tired	-4715
▁sebong	-4716
NN	-4717
ño	-4718
▁걷	-4719
▁샌	-4720
가면	-4721
겠음	-4722
기로	-4723
누나	-4724
상이	-4725
얼굴	-4726
연지	-4727
이게	-4728
정보	-4729
하구	-4730
했음	-4731
:49	-4732
AHH	-4733
ᄀᄏᄏ	-4734
▁Br	-4735
▁Jk	-4736
▁Si	-4737
▁ny	-4738
▁대신	-4739
▁등장	-4740
▁못한	-4741
▁미국	-4742
▁블랙	-4743
▁속이	-4744
▁시험	-4745
▁신발	-4746
▁예술	-4747
▁일어	-4748
▁전혀	-4749
▁증말	-4750
들한테	-4751
▁att	-4752
▁mer	-4753
▁귀요미	-4754
▁민석이	-4755
▁봤어요	-4756
▁선생님	-4757
▁이쁘게	-4758
▁중국은	-4759
▁huhu	-4760
▁개그맨들	-4761
istine	-4762
▁Aespa	-4763
▁tanto	-4764
▁올려주세요	-4765
▁Chenle	-4766
▁cantik	-4767
▁iconic	-4768
▁sayang	-4769
▁JUNGWOO	-4770
▁Strawberry	-4771
OY	-4772
do	-4773
rr	-4774
▁놈	-4775
▁믓	-4776
ヲヲ	-4777
께요	-4778
리스	-4779
받고	-4780
버렸	-4781
섹시	-4782
촬영	-4783
하냐	-4784
하러	-4785
형이	-4786
:24	-4787
:43	-4788
FUL	-4789
▁36	-4790
▁Kt	-4791
▁Pr	-4792
▁TT	-4793
▁ur	-4794
▁뒤에	-4795
▁드립	-4796
▁라라	-4797
▁시키	-4798
▁아쉬	-4799
▁악마	-4800
▁어색	-4801
▁유재	-4802
▁이기	-4803
▁있게	-4804
▁저러	-4805
▁진짴	-4806
▁초반	-4807
▁커피	-4808
EEEE	-4809
aliz	-4810
oved	-4811
▁dem	-4812
▁hay	-4813
▁거짓말	-4814
▁구독자	-4815
▁귀여웡	-4816
▁닝닝이	-4817
▁들어오	-4818
▁비주얼	-4819
▁스트리	-4820
▁엄여인	-4821
▁예전에	-4822
▁이영상	-4823
▁터래기	-4824
▁표정이	-4825
▁피아노	-4826
▁하는게	-4827
헉헉헉헉	-4828
▁ROCK	-4829
▁dont	-4830
▁find	-4831
▁head	-4832
▁joke	-4833
▁once	-4834
▁목소리도	-4835
▁보고싶어	-4836
▁성윤모가	-4837
▁타이타닉	-4838
▁falling	-4839
▁favorit	-4840
▁괴	-4841
가락	-4842
겨줘	-4843
드폰	-4844
발진	-4845
백현	-4846
부가	-4847
순이	-4848
💖💖	-4849
:11	-4850
AEK	-4851
AHA	-4852
ALI	-4853
oul	-4854
▁LE	-4855
▁가요	-4856
▁가져	-4857
▁그나	-4858
▁다녀	-4859
▁단발	-4860
▁등산	-4861
▁라는	-4862
▁미짱	-4863
▁시켜	-4864
▁않을	-4865
▁에너	-4866
▁이어	-4867
▁있네	-4868
▁평소	-4869
▁했다	-4870
셨네요	-4871
한다는	-4872
ills	-4873
ship	-4874
time	-4875
▁Lag	-4876
▁bak	-4877
▁nhi	-4878
▁svt	-4879
▁기억이	-4880
▁도시락	-4881
▁됩니다	-4882
▁멜로디	-4883
▁😭😭😭	-4884
아아아아	-4885
ambil	-4886
▁arte	-4887
▁main	-4888
▁사랑하고	-4889
▁웃음소리	-4890
감사합니다	-4891
ention	-4892
▁스트로베리	-4893
▁matter	-4894
▁single	-4895
~~~~~~~~	-4896
▁Amazing	-4897
▁complet	-4898
▁encanta	-4899
▁sijeuni	-4900
▁ᄏᄏᄏᄏᄏᄏᄏᄏᄏᄏᄏᄏᄏᄏᄏ	-4901
-1	-4902
."	-4903
JA	-4904
iy	-4905
jk	-4906
▁맥	-4907
▁엑	-4908
▁왼	-4909
▁짝	-4910
▁칭	-4911
감이	-4912
내고	-4913
냄새	-4914
땜에	-4915
세계	-4916
순간	-4917
자는	-4918
할게	-4919
ARD	-4920
ora	-4921
ord	-4922
▁GI	-4923
▁관리	-4924
▁난리	-4925
▁넘나	-4926
▁사진	-4927
▁선택	-4928
▁싫어	-4929
▁쌩얼	-4930
▁어우	-4931
▁외모	-4932
▁위한	-4933
▁유일	-4934
▁조용	-4935
▁죽을	-4936
▁현재	-4937
라고요	-4938
할게요	-4939
해줘서	-4940
ness	-4941
▁CON	-4942
▁bal	-4943
▁jam	-4944
▁pal	-4945
▁가슴이	-4946
▁급발진	-4947
▁말하는	-4948
▁안되는	-4949
▁영상도	-4950
▁JUST	-4951
▁Moon	-4952
▁ella	-4953
▁사귀지마	-4954
▁사랑하는	-4955
▁catch	-4956
▁tiene	-4957
▁강호이라고	-4958
▁chorus	-4959
▁johnny	-4960
!!!!!!!!!	-4961
▁remember	-4962
▁entertain	-4963
eg	-4964
êu	-4965
▁낮	-4966
▁뼈	-4967
▁얻	-4968
▁팀	-4969
▁프	-4970
개월	-4971
거리	-4972
관리	-4973
되서	-4974
드카	-4975
림픽	-4976
였다	-4977
요일	-4978
인게	-4979
장훈	-4980
지어	-4981
히려	-4982
:41	-4983
AIN	-4984
ANT	-4985
ERE	-4986
ESS	-4987
bie	-4988
nge	-4989
rem	-4990
▁An	-4991
▁Aw	-4992
▁DK	-4993
▁나가	-4994
▁누군	-4995
▁바라	-4996
▁바람	-4997
▁보통	-4998
▁비번	-4999
▁쓰고	-5000
▁유지	-5001
▁제작	-5002
▁졸라	-5003
더라도	-5004
사겨줘	-5005
아저씨	-5006
지는거	-5007
ised	-5008
▁Ten	-5009
▁far	-5010
▁mil	-5011
▁고구마	-5012
▁엄마가	-5013
▁이런거	-5014
▁있는거	-5015
▁️️️	-5016
ining	-5017
ition	-5018
▁BAEK	-5019
▁apoy	-5020
▁else	-5021
▁naik	-5022
▁ning	-5023
▁pued	-5024
▁safe	-5025
▁seem	-5026
▁soft	-5027
▁There	-5028
▁escuc	-5029
▁korea	-5030
▁pleas	-5031
▁young	-5032
▁보고싶어요	-5033
▁NCTzen	-5034
▁doyoung	-5035
▁HAHAHAHAH	-5036
▁goosebumps	-5037
NA	-5038
__	-5039
ui	-5040
▁굳	-5041
▁송	-5042
▁철	-5043
내는	-5044
대를	-5045
대에	-5046
드백	-5047
쓰는	-5048
이거	-5049
하길	-5050
할듯	-5051
🥰🥰	-5052
:09	-5053
IRL	-5054
una	-5055
▁,,	-5056
▁05	-5057
▁da	-5058
▁ko	-5059
▁갈아	-5060
▁개잘	-5061
▁괜히	-5062
▁넘넘	-5063
▁눈치	-5064
▁다이	-5065
▁대사	-5066
▁들었	-5067
▁먹을	-5068
▁몰입	-5069
▁받고	-5070
▁성장	-5071
▁안전	-5072
▁울컥	-5073
▁잠시	-5074
▁참고	-5075
▁책임	-5076
▁초등	-5077
이라서	-5078
deul	-5079
ghed	-5080
vers	-5081
ᄒᄏᄒᄏ	-5082
▁Est	-5083
▁LAG	-5084
▁Lee	-5085
▁fre	-5086
▁mar	-5087
▁suc	-5088
▁tou	-5089
▁war	-5090
▁계란형	-5091
▁따뜻한	-5092
▁미쳤어	-5093
▁시간이	-5094
▁싶네요	-5095
▁없는데	-5096
▁위해서	-5097
ality	-5098
ullen	-5099
▁1:31	-5100
▁Like	-5101
▁está	-5102
▁pass	-5103
▁prob	-5104
▁repe	-5105
▁self	-5106
▁PERFE	-5107
▁final	-5108
▁makin	-5109
▁stand	-5110
▁cutest	-5111
▁Vampire	-5112
▁release	-5113
▁workout	-5114
▁anything	-5115
▁canciones	-5116
17	-5117
ew	-5118
li	-5119
▁ك	-5120
▁놓	-5121
▁싹	-5122
기넼	-5123
나이	-5124
노랭	-5125
똑똑	-5126
세여	-5127
움직	-5128
원이	-5129
트로	-5130
APP	-5131
ISS	-5132
cer	-5133
not	-5134
ump	-5135
▁Ar	-5136
▁BG	-5137
▁DI	-5138
▁LI	-5139
▁LU	-5140
▁PL	-5141
▁ty	-5142
▁감탄	-5143
▁개꿀	-5144
▁높은	-5145
▁무덤	-5146
▁무한	-5147
▁삼촌	-5148
▁어떡	-5149
▁주휘	-5150
▁학생	-5151
사람들	-5152
정도로	-5153
줬으면	-5154
퀄리티	-5155
YONG	-5156
llie	-5157
▁FAV	-5158
▁For	-5159
▁NOT	-5160
▁bit	-5161
▁dig	-5162
▁hal	-5163
▁lat	-5164
▁nam	-5165
▁pro	-5166
▁싫어요	-5167
▁안나오	-5168
▁안하고	-5169
▁오히려	-5170
▁지금은	-5171
▁한사랑	-5172
▁😂😂😂	-5173
uring	-5174
▁0:20	-5175
▁Hope	-5176
▁JEON	-5177
▁call	-5178
▁eres	-5179
▁glad	-5180
▁okay	-5181
▁stre	-5182
▁youu	-5183
▁그와중에	-5184
▁아이디어	-5185
▁오래오래	-5186
akasih	-5187
▁Where	-5188
▁match	-5189
▁생각했는데	-5190
▁자랑스러운	-5191
▁excited	-5192
▁Blackpink	-5193
▁addictive	-5194
▁saranghae	-5195
GG	-5196
KK	-5197
bu	-5198
gi	-5199
sa	-5200
ài	-5201
▁났	-5202
▁띵	-5203
▁엠	-5204
▁털	-5205
▁😆	-5206
래요	-5207
번은	-5208
선수	-5209
시오	-5210
아주	-5211
오늘	-5212
헤이	-5213
:05	-5214
:06	-5215
:19	-5216
:51	-5217
:58	-5218
hes	-5219
ual	-5220
▁La	-5221
▁같네	-5222
▁김민	-5223
▁대위	-5224
▁뛰어	-5225
▁마비	-5226
▁만큼	-5227
▁보컬	-5228
▁생기	-5229
▁설레	-5230
▁연출	-5231
▁티비	-5232
▁흔들	-5233
겁니다	-5234
elah	-5235
emos	-5236
ween	-5237
▁JAE	-5238
▁MAS	-5239
▁duo	-5240
▁kem	-5241
▁가운데	-5242
▁겨울이	-5243
▁사람을	-5244
▁서장훈	-5245
▁왜이리	-5246
▁우리가	-5247
▁일부러	-5248
▁지금도	-5249
▁하시는	-5250
?????	-5251
THING	-5252
ction	-5253
ilang	-5254
▁???:	-5255
▁cada	-5256
▁days	-5257
▁intr	-5258
▁trop	-5259
▁ᅮᅮᅮᅮ	-5260
▁하나하나	-5261
aiting	-5262
ennies	-5263
▁mejor	-5264
▁사랑스럽다	-5265
▁almost	-5266
▁lovely	-5267
▁thanks	-5268
▁감사드립니다	-5269
▁magical	-5270
▁addicted	-5271
▁trending	-5272
mo	-5273
ún	-5274
▁и	-5275
▁법	-5276
▁씻	-5277
▁캔	-5278
가루	-5279
생을	-5280
이없	-5281
:18	-5282
:46	-5283
UAL	-5284
asy	-5285
con	-5286
▁To	-5287
▁cả	-5288
▁je	-5289
▁경험	-5290
▁끄박	-5291
▁된다	-5292
▁리얼	-5293
▁많아	-5294
▁물어	-5295
▁반가	-5296
▁살았	-5297
▁센스	-5298
▁아파	-5299
▁유투	-5300
▁이루	-5301
▁작은	-5302
▁절약	-5303
▁좀비	-5304
▁지은	-5305
▁촬영	-5306
▁출신	-5307
▁하하	-5308
▁해보	-5309
▁희망	-5310
하시길	-5311
ears	-5312
utes	-5313
uuuu	-5314
▁TAL	-5315
▁yok	-5316
▁돈까스	-5317
▁살아남	-5318
▁샌드백	-5319
▁웃겨요	-5320
▁자체가	-5321
▁핸드폰	-5322
거같아요	-5323
동욱이형	-5324
uture	-5325
▁able	-5326
▁swim	-5327
▁너무좋아	-5328
▁Guvna	-5329
▁candu	-5330
▁comes	-5331
▁dress	-5332
▁pasti	-5333
▁sampe	-5334
▁tidak	-5335
ossible	-5336
▁Edward	-5337
▁vernon	-5338
????????	-5339
▁friends	-5340
▁giselle	-5341
AZ	-5342
dh	-5343
▁냉	-5344
▁넷	-5345
▁랩	-5346
▁뿐	-5347
▁퍼	-5348
가자	-5349
것이	-5350
나래	-5351
보릿	-5352
이신	-5353
이여	-5354
조심	-5355
:23	-5356
AKE	-5357
ira	-5358
ius	-5359
oga	-5360
uch	-5361
yoo	-5362
▁US	-5363
▁jk	-5364
▁ll	-5365
▁ma	-5366
▁감기	-5367
▁떠오	-5368
▁만화	-5369
▁보상	-5370
▁씨름	-5371
▁위험	-5372
▁인사	-5373
▁조아	-5374
▁좋을	-5375
▁피해	-5376
▁후회	-5377
가지고	-5378
사람이	-5379
장에서	-5380
줄이야	-5381
ento	-5382
▁AMO	-5383
▁BET	-5384
▁kok	-5385
▁mal	-5386
▁nih	-5387
▁pen	-5388
▁가즈아	-5389
▁다음에	-5390
▁맛있게	-5391
▁아무도	-5392
▁연지님	-5393
▁영원히	-5394
▁이제는	-5395
▁캐릭터	-5396
▁햄연지	-5397
▁Sung	-5398
▁berk	-5399
▁gave	-5400
▁kamu	-5401
▁lead	-5402
▁ming	-5403
▁mood	-5404
▁rest	-5405
▁soul	-5406
▁used	-5407
▁목소리는	-5408
▁반호이가	-5409
▁축하드려요	-5410
olutely	-5411
▁between	-5412
▁laughed	-5413
▁success	-5414
▁watched	-5415
▁Everything	-5416
▁appreciate	-5417
KA	-5418
ла	-5419
ра	-5420
حب	-5421
ᄌᄃ	-5422
▁넌	-5423
▁뻔	-5424
▁읽	-5425
드리	-5426
번에	-5427
세상	-5428
음료	-5429
이들	-5430
이러	-5431
자라	-5432
지요	-5433
하실	-5434
gak	-5435
nie	-5436
win	-5437
▁Id	-5438
▁Lo	-5439
▁SI	-5440
▁가서	-5441
▁눈을	-5442
▁능력	-5443
▁마시	-5444
▁뭐냐	-5445
▁부담	-5446
▁빨간	-5447
▁어렵	-5448
▁얼른	-5449
▁오마	-5450
▁유명	-5451
▁의심	-5452
▁짜증	-5453
▁피넛	-5454
▁하기	-5455
▁한달	-5456
님께서	-5457
스러워	-5458
적이고	-5459
isma	-5460
▁GUY	-5461
▁One	-5462
▁TER	-5463
▁WOR	-5464
▁ach	-5465
▁dap	-5466
▁hur	-5467
▁làm	-5468
▁tri	-5469
▁개웃김	-5470
▁기다릴	-5471
▁다음주	-5472
▁당신을	-5473
▁당신의	-5474
▁박나래	-5475
▁보고있	-5476
▁아름답	-5477
▁웃기다	-5478
▁이영지	-5479
▁있나요	-5480
▁있지만	-5481
▁자신의	-5482
▁준영님	-5483
▁하니까	-5484
ories	-5485
▁With	-5486
▁draw	-5487
▁lang	-5488
▁김종국님	-5489
▁나왔으면	-5490
▁사람들은	-5491
▁웃으면서	-5492
▁처음으로	-5493
으셨습니다	-5494
▁freak	-5495
▁sorry	-5496
▁행복하세요	-5497
▁REALLY	-5498
▁descri	-5499
▁loving	-5500
ulations	-5501
▁awesome	-5502
▁forever	-5503
▁gracias	-5504
▁BAEKHYUN	-5505
▁wonderful	-5506
▁especially	-5507
ều	-5508
▁[	-5509
▁긍	-5510
▁됨	-5511
그러	-5512
던거	-5513
듣고	-5514
레기	-5515
먼저	-5516
사돈	-5517
아님	-5518
윤정	-5519
주행	-5520
하여	-5521
희철	-5522
:47	-5523
EAR	-5524
▁LM	-5525
▁구라	-5526
▁국민	-5527
▁기묘	-5528
▁기본	-5529
▁깜짝	-5530
▁도전	-5531
▁따로	-5532
▁문화	-5533
▁뭐가	-5534
▁불쌍	-5535
▁삼성	-5536
▁섹시	-5537
▁어른	-5538
▁움직	-5539
▁전쟁	-5540
▁젊은	-5541
▁주펄	-5542
▁커서	-5543
▁키우	-5544
공에서	-5545
들이랑	-5546
비시즌	-5547
스럽다	-5548
으로서	-5549
으세요	-5550
이쁘다	-5551
잘하고	-5552
하고싶	-5553
hhhh	-5554
king	-5555
▁cor	-5556
▁mấy	-5557
▁sca	-5558
▁spe	-5559
▁tit	-5560
▁들어가	-5561
▁마이크	-5562
▁보드카	-5563
▁섭외력	-5564
▁시청자	-5565
▁아니야	-5566
▁아재들	-5567
▁종국이	-5568
▁중독성	-5569
▁<333	-5570
▁damn	-5571
▁felt	-5572
▁강호이가	-5573
▁떨어지면	-5574
orning	-5575
▁linda	-5576
▁masih	-5577
▁orang	-5578
▁sings	-5579
▁woman	-5580
▁고맙습니다	-5581
▁사랑스럽고	-5582
ography	-5583
▁BETTER	-5584
▁WINTER	-5585
▁around	-5586
▁jennie	-5587
▁realiz	-5588
▁forward	-5589
▁Christine	-5590
OD	-5591
bo	-5592
dy	-5593
no	-5594
ến	-5595
▁Đ	-5596
▁격	-5597
▁꺄	-5598
▁뒷	-5599
▁떡	-5600
▁봄	-5601
가능	-5602
거든	-5603
건강	-5604
그램	-5605
리신	-5606
여행	-5607
역시	-5608
이제	-5609
주의	-5610
:29	-5611
AMP	-5612
cha	-5613
▁#1	-5614
▁En	-5615
▁Ex	-5616
▁♡♡	-5617
▁과거	-5618
▁과자	-5619
▁다가	-5620
▁당장	-5621
▁딸기	-5622
▁때문	-5623
▁마을	-5624
▁마이	-5625
▁박수	-5626
▁수도	-5627
▁애교	-5628
▁재현	-5629
▁조카	-5630
▁죽는	-5631
▁진지	-5632
▁홍보	-5633
거같아	-5634
겠다고	-5635
💜💜💜	-5636
Ning	-5637
yond	-5638
▁Com	-5639
▁귀엽네	-5640
▁모습을	-5641
▁못하는	-5642
▁믓찌다	-5643
▁미쳤네	-5644
▁실제로	-5645
▁정도로	-5646
▁할머니	-5647
해주셔서	-5648
arena	-5649
▁Even	-5650
▁GIRL	-5651
▁HAVE	-5652
▁Such	-5653
▁bien	-5654
▁chic	-5655
▁hall	-5656
▁inst	-5657
▁mind	-5658
▁side	-5659
▁subs	-5660
▁귀여워서	-5661
▁스트리밍	-5662
▁신기하다	-5663
▁심장마비	-5664
▁처음부터	-5665
▁페이보릿	-5666
▁Their	-5667
▁cause	-5668
▁ghost	-5669
▁react	-5670
▁Jaemin	-5671
▁sambil	-5672
▁comfort	-5673
▁costume	-5674
▁released	-5675
▁reference	-5676
SO	-5677
YY	-5678
yn	-5679
ен	-5680
ال	-5681
ᄅᄋ	-5682
ᅮᅲ	-5683
ủa	-5684
▁ل	-5685
▁꽃	-5686
▁빈	-5687
▁푸	-5688
말을	-5689
머님	-5690
보게	-5691
뻐드	-5692
수는	-5693
웃음	-5694
이냐	-5695
해줘	-5696
행복	-5697
🇮🇳	-5698
:21	-5699
:39	-5700
:57	-5701
AYS	-5702
EEP	-5703
ENN	-5704
INK	-5705
sep	-5706
tic	-5707
uff	-5708
uys	-5709
ᄃᄃᄃ	-5710
▁ES	-5711
▁Sw	-5712
▁bo	-5713
▁만난	-5714
▁바꿔	-5715
▁불편	-5716
▁브금	-5717
▁사기	-5718
▁수업	-5719
▁인데	-5720
▁초딩	-5721
▁칭찬	-5722
▁킬링	-5723
▁퐁퐁	-5724
...!	-5725
▁Did	-5726
▁Its	-5727
▁ing	-5728
▁kel	-5729
▁nan	-5730
▁nun	-5731
▁obs	-5732
▁sed	-5733
▁그렇지	-5734
▁노래들	-5735
▁대부분	-5736
▁돌아오	-5737
▁똑똑이	-5738
▁모두가	-5739
▁모르고	-5740
▁볼수록	-5741
▁아닐까	-5742
▁아이고	-5743
▁웃겨서	-5744
▁웃기고	-5745
▁있어도	-5746
▁있을까	-5747
▁재밌네	-5748
▁즐겁게	-5749
▁퀄리티	-5750
▁dulu	-5751
▁impr	-5752
▁비밀번호	-5753
pecial	-5754
▁Bagus	-5755
▁Bella	-5756
▁kinda	-5757
ational	-5758
▁beauty	-5759
▁hermoso	-5760
▁minutes	-5761
▁birthday	-5762
ᄋᄂ	-5763
▁;	-5764
▁ت	-5765
▁굉	-5766
▁눌	-5767
▁덤	-5768
▁섞	-5769
▁압	-5770
▁핵	-5771
남님	-5772
때도	-5773
선이	-5774
였어	-5775
인간	-5776
일구	-5777
장님	-5778
장면	-5779
조아	-5780
주일	-5781
😘😘	-5782
ERY	-5783
bak	-5784
ner	-5785
ped	-5786
uin	-5787
▁EX	-5788
▁FR	-5789
▁기빨	-5790
▁끝났	-5791
▁달려	-5792
▁닮은	-5793
▁더더	-5794
▁더블	-5795
▁심쿵	-5796
▁아마	-5797
▁암튼	-5798
▁에서	-5799
▁예수	-5800
▁와서	-5801
▁이겨	-5802
▁자유	-5803
▁커플	-5804
❤❤❤	-5805
되네요	-5806
아니라	-5807
아아아	-5808
파이터	-5809
했지만	-5810
?!?!	-5811
▁WOW	-5812
▁par	-5813
▁기다려	-5814
▁노래로	-5815
▁등산화	-5816
▁똑같은	-5817
▁맛있어	-5818
▁스트형	-5819
▁영생을	-5820
▁인직아	-5821
▁있다고	-5822
▁🤣🤣🤣	-5823
▁CANT	-5824
▁GOOD	-5825
▁funn	-5826
▁meny	-5827
▁아이유가	-5828
▁좋겠네요	-5829
▁중대장님	-5830
esting	-5831
▁FAVOR	-5832
▁bakal	-5833
▁suits	-5834
▁effort	-5835
▁harder	-5836
▁korean	-5837
▁PERFECT	-5838
AV	-5839
ải	-5840
ắm	-5841
▁석	-5842
▁숙	-5843
▁였	-5844
▁튀	-5845
▁풍	-5846
내요	-5847
년전	-5848
단장	-5849
리퍼	-5850
받는	-5851
부르	-5852
사를	-5853
셨네	-5854
신기	-5855
아지	-5856
진거	-5857
태일	-5858
한국	-5859
할거	-5860
할까	-5861
:56	-5862
AAA	-5863
erc	-5864
itu	-5865
nae	-5866
▁:'	-5867
▁AK	-5868
▁De	-5869
▁고등	-5870
▁기절	-5871
▁눈에	-5872
▁듣기	-5873
▁마크	-5874
▁먹통	-5875
▁뭐라	-5876
▁미쳣	-5877
▁쉽게	-5878
▁실력	-5879
▁이지	-5880
▁죄송	-5881
▁지난	-5882
▁짜오	-5883
▁충분	-5884
▁킬포	-5885
▁한참	-5886
레이크	-5887
메이션	-5888
셨으면	-5889
언니가	-5890
fect	-5891
idad	-5892
ings	-5893
▁Luc	-5894
▁Who	-5895
▁ang	-5896
▁beg	-5897
▁kan	-5898
▁당신이	-5899
▁봅니다	-5900
▁스스로	-5901
▁심지어	-5902
▁아빠가	-5903
▁올라가	-5904
▁유재석	-5905
▁제자리	-5906
▁최일구	-5907
시간동안	-5908
iness	-5909
ional	-5910
▁KALI	-5911
▁KEEP	-5912
▁SOTY	-5913
▁Show	-5914
▁Song	-5915
▁Your	-5916
▁body	-5917
▁born	-5918
▁hits	-5919
▁hour	-5920
▁meet	-5921
▁mend	-5922
▁move	-5923
▁pada	-5924
▁기다렸다	-5925
▁영국남자	-5926
▁Hwasa	-5927
▁taeil	-5928
▁track	-5929
▁karena	-5930
▁kenapa	-5931
▁imagine	-5932
▁working	-5933
▁고생하셨습니다	-5934
▁NingNing	-5935
▁contents	-5936
▁sekarang	-5937
너무너무너무너무너무너무너무너무	-5938
bl	-5939
та	-5940
ني	-5941
▁엘	-5942
▁찔	-5943
▁💕	-5944
공격	-5945
긴다	-5946
따라	-5947
려는	-5948
셔요	-5949
심이	-5950
온다	-5951
🇰🇷	-5952
ALL	-5953
HER	-5954
aya	-5955
ggg	-5956
how	-5957
ien	-5958
ila	-5959
ili	-5960
omi	-5961
~~♡	-5962
▁AD	-5963
▁ra	-5964
▁가루	-5965
▁경례	-5966
▁굉장	-5967
▁귀신	-5968
▁나눠	-5969
▁나랑	-5970
▁너희	-5971
▁다리	-5972
▁뭐든	-5973
▁부족	-5974
▁비탈	-5975
▁상태	-5976
▁성우	-5977
▁스포	-5978
▁약속	-5979
▁우울	-5980
▁이모	-5981
▁자리	-5982
▁저요	-5983
▁정상	-5984
▁정확	-5985
▁지구	-5986
▁춤추	-5987
▁크게	-5988
▁힘이	-5989
되는데	-5990
왔는데	-5991
졌어요	-5992
하시네	-5993
alau	-5994
body	-5995
mist	-5996
▁Man	-5997
▁Nct	-5998
▁Ser	-5999
▁của	-6000
▁fam	-6001
▁gap	-6002
▁gem	-6003
▁ide	-6004
▁mis	-6005
▁nos	-6006
▁pun	-6007
▁ᅮᅮᅮ	-6008
▁김희철	-6009
▁꿀제이	-6010
▁남보라	-6011
▁똑똑한	-6012
▁멋지다	-6013
▁부러워	-6014
▁생각해	-6015
▁없네요	-6016
▁웃음이	-6017
▁입으로	-6018
▁하고싶	-6019
otter	-6020
ulang	-6021
▁AMAZ	-6022
▁mine	-6023
▁open	-6024
▁그리스도	-6025
▁맛있겠다	-6026
▁행복하다	-6027
mistry	-6028
▁esper	-6029
▁kalau	-6030
▁needs	-6031
▁place	-6032
귀여워귀여워	-6033
▁finals	-6034
▁ngakak	-6035
▁strong	-6036
▁unique	-6037
▁artists	-6038
▁express	-6039
▁playing	-6040
▁escuchar	-6041
..........	-6042
▁chemistry	-6043
▁halloween	-6044
▁realmente	-6045
▁EVERYTHING	-6046
PP	-6047
VT	-6048
ại	-6049
▁/	-6050
▁✨	-6051
▁뉴	-6052
▁뽀	-6053
▁캬	-6054
▁쿠	-6055
▁탑	-6056
▁품	-6057
▁헷	-6058
▁혜	-6059
걸음	-6060
것만	-6061
곡이	-6062
공부	-6063
구리	-6064
드는	-6065
때는	-6066
먹어	-6067
물이	-6068
방법	-6069
사고	-6070
십쇼	-6071
움이	-6072
으러	-6073
이런	-6074
이유	-6075
지지	-6076
지컬	-6077
채널	-6078
키로	-6079
훈이	-6080
💓💓	-6081
💧💧	-6082
:22	-6083
AUT	-6084
ICE	-6085
ido	-6086
mon	-6087
ừng	-6088
▁Fr	-6089
▁bc	-6090
▁ye	-6091
▁고기	-6092
▁두명	-6093
▁미래	-6094
▁빠져	-6095
▁빵터	-6096
▁설정	-6097
▁신고	-6098
▁아나	-6099
▁인성	-6100
▁저녁	-6101
▁정우	-6102
▁존예	-6103
▁하자	-6104
▁행동	-6105
▁헤메	-6106
식으로	-6107
었다고	-6108
▁cle	-6109
▁kid	-6110
▁pos	-6111
▁vez	-6112
▁급상승	-6113
▁나네요	-6114
▁멋져요	-6115
▁소름이	-6116
▁오른쪽	-6117
▁윤정한	-6118
▁이름이	-6119
▁자기가	-6120
▁중간에	-6121
▁한국에	-6122
😭😭😭😭	-6123
iling	-6124
maker	-6125
▁Guys	-6126
▁LETS	-6127
▁biar	-6128
▁cons	-6129
▁grow	-6130
▁hehe	-6131
▁hist	-6132
▁peng	-6133
▁stud	-6134
▁귀여운데	-6135
▁라이브로	-6136
▁루시드폴	-6137
▁목소리를	-6138
▁시어머니	-6139
onesia	-6140
▁BEAUT	-6141
▁Great	-6142
▁NEVER	-6143
▁might	-6144
▁train	-6145
▁무슨일이야	-6146
zennies	-6147
▁bilang	-6148
▁camera	-6149
▁future	-6150
▁incred	-6151
▁promot	-6152
▁rapper	-6153
▁scared	-6154
▁AMAZING	-6155
▁Finally	-6156
▁Shotaro	-6157
▁TAEYONG	-6158
▁hearing	-6159
💜💜💜💜💜💜💜💜	-6160
▁inviting	-6161
!?	-6162
RY	-6163
gn	-6164
ọc	-6165
▁뿜	-6166
▁삐	-6167
▁쪽	-6168
▁헉	-6169
▁💚	-6170
거라	-6171
내가	-6172
되네	-6173
되어	-6174
없다	-6175
있게	-6176
자의	-6177
졌어	-6178
하라	-6179
aba	-6180
ted	-6181
uuu	-6182
way	-6183
▁AY	-6184
▁SW	-6185
▁sn	-6186
▁đâ	-6187
▁가고	-6188
▁고급	-6189
▁교수	-6190
▁군인	-6191
▁놀아	-6192
▁달달	-6193
▁대상	-6194
▁멋져	-6195
▁목욕	-6196
▁바꾸	-6197
▁반복	-6198
▁반전	-6199
▁받는	-6200
▁받은	-6201
▁범죄	-6202
▁설마	-6203
▁시골	-6204
▁신랑	-6205
▁싸이	-6206
▁아닙	-6207
▁웃곀	-6208
▁이때	-6209
▁있던	-6210
▁하신	-6211
▁하트	-6212
▁홀리	-6213
▁후임	-6214
강호이	-6215
산악회	-6216
시는거	-6217
야겠다	-6218
하지않	-6219
해지는	-6220
😍😍😍	-6221
itas	-6222
ters	-6223
▁GET	-6224
▁INI	-6225
▁LIK	-6226
▁SVT	-6227
▁dia	-6228
▁kar	-6229
▁mon	-6230
▁tot	-6231
▁ᄅᄌᄃ	-6232
▁♡♡♡	-6233
▁김인직	-6234
▁당연히	-6235
▁분들이	-6236
▁살면서	-6237
▁진렬이	-6238
▁찢었다	-6239
▁포인트	-6240
aking	-6241
ather	-6242
▁0:19	-6243
▁GUYS	-6244
▁Jeno	-6245
▁bers	-6246
▁capt	-6247
▁fire	-6248
▁gust	-6249
▁lear	-6250
▁line	-6251
▁terb	-6252
▁가운데서	-6253
▁들었는데	-6254
▁떨어져서	-6255
▁재미있는	-6256
▁Beaut	-6257
▁Ollie	-6258
▁bukan	-6259
▁cream	-6260
▁insan	-6261
▁lucky	-6262
▁produ	-6263
▁존경합니다	-6264
▁Jisung	-6265
▁Kalian	-6266
▁became	-6267
▁myself	-6268
▁taking	-6269
▁continu	-6270
▁enjoyed	-6271
▁himself	-6272
▁selamat	-6273
▁honestly	-6274
▁precious	-6275
▁absolutely	-6276
.1	-6277
EM	-6278
IH	-6279
mm	-6280
ẫn	-6281
▁ع	-6282
▁ᄂ	-6283
▁벅	-6284
대학	-6285
려면	-6286
로드	-6287
리게	-6288
말도	-6289
사가	-6290
었고	-6291
이름	-6292
처음	-6293
쳐서	-6294
키스	-6295
표정	-6296
ANY	-6297
hir	-6298
kkk	-6299
ogn	-6300
ret	-6301
ttt	-6302
áng	-6303
ᄀᄏᄀ	-6304
ắng	-6305
▁22	-6306
▁ta	-6307
▁같애	-6308
▁공기	-6309
▁더욱	-6310
▁데뷔	-6311
▁동욱	-6312
▁백신	-6313
▁봐서	-6314
▁스밍	-6315
▁신부	-6316
▁안타	-6317
▁어깨	-6318
▁언급	-6319
▁에피	-6320
▁연필	-6321
▁윤정	-6322
▁이뽀	-6323
▁증명	-6324
▁풀어	-6325
▁헷갈	-6326
는데요	-6327
다니는	-6328
속으로	-6329
읍니다	-6330
하는지	-6331
하다고	-6332
합니당	-6333
ably	-6334
elum	-6335
▁Fun	-6336
▁STR	-6337
▁cày	-6338
▁dah	-6339
▁dib	-6340
▁mir	-6341
▁sis	-6342
▁리헤이	-6343
▁보인다	-6344
▁쌍둥이	-6345
▁올림픽	-6346
▁웃는거	-6347
▁COME	-6348
▁LOOK	-6349
▁THEM	-6350
▁done	-6351
▁hate	-6352
▁says	-6353
▁send	-6354
▁thôi	-6355
▁꿀정언니	-6356
▁영상에서	-6357
▁우리에게	-6358
▁하나님은	-6359
ourite	-6360
▁emang	-6361
▁건강하세요	-6362
▁애니메이션	-6363
▁지원합니다	-6364
▁KALIAN	-6365
▁karina	-6366
▁living	-6367
▁BANGETT	-6368
▁JAEHYUN	-6369
▁version	-6370
▁bangettt	-6371
▁expected	-6372
).	-6373
CI	-6374
bs	-6375
go	-6376
ms	-6377
ẹp	-6378
••	-6379
▁о	-6380
▁ᅳ	-6381
▁겪	-6382
▁똥	-6383
▁묘	-6384
▁셋	-6385
▁율	-6386
▁켜	-6387
▁톤	-6388
▁핫	-6389
당히	-6390
때가	-6391
릉도	-6392
만들	-6393
많은	-6394
사는	-6395
사이	-6396
없네	-6397
우팅	-6398
운동	-6399
을수	-6400
재미	-6401
제가	-6402
지기	-6403
?..	-6404
UNN	-6405
UTA	-6406
anj	-6407
bat	-6408
iap	-6409
orr	-6410
▁UN	-6411
▁il	-6412
▁và	-6413
▁그를	-6414
▁긍정	-6415
▁기가	-6416
▁남은	-6417
▁담배	-6418
▁도로	-6419
▁마법	-6420
▁민영	-6421
▁버스	-6422
▁살이	-6423
▁왼쪽	-6424
▁존잘	-6425
▁직원	-6426
▁질문	-6427
▁최근	-6428
▁침펄	-6429
▁타고	-6430
▁편안	-6431
▁🥰🥰	-6432
스럽고	-6433
이라면	-6434
해지고	-6435
aena	-6436
▁ALW	-6437
▁Lol	-6438
▁few	-6439
▁gua	-6440
▁hot	-6441
▁lắm	-6442
▁pag	-6443
▁thì	-6444
▁계란님	-6445
▁김윈터	-6446
▁되네요	-6447
▁똑순이	-6448
▁먹으면	-6449
▁모르게	-6450
▁뭐라고	-6451
▁사람도	-6452
▁우리의	-6453
▁윤모가	-6454
▁인직이	-6455
▁전소민	-6456
▁주인공	-6457
▁하이라	-6458
▁했어요	-6459
▁했으면	-6460
더라고요	-6461
aaaaa	-6462
imana	-6463
ooooo	-6464
▁STAN	-6465
▁YEAR	-6466
▁amaz	-6467
▁lain	-6468
▁prop	-6469
▁rose	-6470
▁sign	-6471
▁sump	-6472
▁went	-6473
▁writ	-6474
▁백현이가	-6475
▁브레이크	-6476
▁어몽형님	-6477
▁없습니다	-6478
▁한국에서	-6479
▁힘내세요	-6480
▁!!!!!	-6481
▁bless	-6482
▁close	-6483
▁cutie	-6484
▁dalam	-6485
▁exper	-6486
▁makan	-6487
▁scari	-6488
▁tears	-6489
▁title	-6490
▁chenle	-6491
▁reason	-6492
▁ᅲᅲᅲᅲᅲᅲᅲ	-6493
▁charisma	-6494
▁obsessed	-6495
!!!!!!!!!!!	-6496
UH	-6497
ey	-6498
ty	-6499
▁던	-6500
▁덜	-6501
▁땅	-6502
▁룩	-6503
▁맡	-6504
▁쌓	-6505
▁쎄	-6506
▁햇	-6507
▁💗	-6508
私の	-6509
계속	-6510
나면	-6511
나봐	-6512
마음	-6513
만의	-6514
배우	-6515
았네	-6516
았어	-6517
인것	-6518
쟈니	-6519
진우	-6520
100	-6521
▁BU	-6522
▁LG	-6523
▁것은	-6524
▁결과	-6525
▁그럴	-6526
▁느낀	-6527
▁댄스	-6528
▁몰라	-6529
▁몸을	-6530
▁반갑	-6531
▁배경	-6532
▁배웠	-6533
▁보관	-6534
▁부부	-6535
▁선임	-6536
▁스윗	-6537
▁신경	-6538
▁실망	-6539
▁야무	-6540
▁언젠	-6541
▁오는	-6542
▁오랫	-6543
▁이용	-6544
▁재능	-6545
▁준빈	-6546
▁침착	-6547
▁코코	-6548
▁피부	-6549
그리고	-6550
었지만	-6551
으로써	-6552
이렇게	-6553
하지마	-6554
해주고	-6555
akin	-6556
ider	-6557
load	-6558
play	-6559
▁:((	-6560
▁AES	-6561
▁GOD	-6562
▁Ini	-6563
▁deh	-6564
▁jun	-6565
▁mun	-6566
▁sab	-6567
▁tuh	-6568
▁그녀의	-6569
▁기여워	-6570
▁대박나	-6571
▁되는거	-6572
▁듣는데	-6573
▁마세요	-6574
▁멤버들	-6575
▁뭔가요	-6576
▁삐쭈님	-6577
▁영상에	-6578
▁옆에서	-6579
▁있구나	-6580
▁재밌고	-6581
▁정주행	-6582
▁주셔서	-6583
▁하세요	-6584
였습니다	-6585
️️️️	-6586
,,,,,	-6587
▁PRET	-6588
▁away	-6589
▁nang	-6590
▁들을수록	-6591
▁사랑스런	-6592
▁생각하고	-6593
▁생각하면	-6594
▁알았어요	-6595
▁인터넷이	-6596
▁프로그램	-6597
amente	-6598
~~~~~~	-6599
▁biasa	-6600
▁keeps	-6601
▁knows	-6602
▁soooo	-6603
▁보고싶었어	-6604
▁자연스럽게	-6605
▁BEAUTI	-6606
▁Cullen	-6607
▁MASTER	-6608
▁charts	-6609
▁guests	-6610
▁increí	-6611
▁sekali	-6612
▁사랑스러워요	-6613
▁achieve	-6614
▁reminds	-6615
▁FAVORITE	-6616
▁heavenly	-6617
...........	-6618
99	-6619
UA	-6620
di	-6621
ix	-6622
kt	-6623
mu	-6624
ᄁᄏ	-6625
▁<	-6626
▁ạ	-6627
▁널	-6628
▁떨	-6629
▁뜻	-6630
▁밟	-6631
▁싱	-6632
▁쨔	-6633
▁페	-6634
그런	-6635
년이	-6636
란다	-6637
소름	-6638
속에	-6639
에이	-6640
웃곀	-6641
일까	-6642
자주	-6643
제발	-6644
🙏🙏	-6645
ART	-6646
NYA	-6647
OUS	-6648
anc	-6649
iri	-6650
úng	-6651
▁23	-6652
▁hw	-6653
▁간단	-6654
▁개념	-6655
▁검색	-6656
▁대해	-6657
▁만약	-6658
▁미리	-6659
▁방향	-6660
▁병원	-6661
▁본다	-6662
▁부산	-6663
▁뻐드	-6664
▁아냐	-6665
▁아예	-6666
▁안경	-6667
▁안보	-6668
▁열정	-6669
▁우승	-6670
▁익숙	-6671
▁잘추	-6672
▁적응	-6673
▁피곤	-6674
▁해결	-6675
▁헤어	-6676
▁효진	-6677
거에요	-6678
났는데	-6679
리네요	-6680
미쳤다	-6681
셰프님	-6682
으시고	-6683
인데요	-6684
👍👍👍	-6685
🤣🤣🤣	-6686
IECE	-6687
more	-6688
otic	-6689
ᅳᅳᅳᅳ	-6690
▁25,	-6691
▁:))	-6692
▁BOY	-6693
▁NYA	-6694
▁OUR	-6695
▁VIS	-6696
▁btw	-6697
▁ext	-6698
▁gre	-6699
▁ist	-6700
▁udh	-6701
▁vẫn	-6702
▁나이가	-6703
▁대구돈	-6704
▁슬리퍼	-6705
▁쓰레기	-6706
▁아이가	-6707
▁어린이	-6708
▁이유는	-6709
▁정말로	-6710
....?	-6711
alous	-6712
▁HERE	-6713
▁LIKE	-6714
▁baru	-6715
▁drop	-6716
▁insp	-6717
▁rain	-6718
▁몰랐는데	-6719
▁상공에서	-6720
▁총몇명님	-6721
▁AESPA	-6722
▁Gabie	-6723
▁Honey	-6724
▁award	-6725
▁breat	-6726
▁floor	-6727
▁komen	-6728
▁month	-6729
▁stuff	-6730
▁동욱이형이	-6731
▁ALWAYS	-6732
▁during	-6733
▁produc	-6734
▁recogn	-6735
▁school	-6736
▁sumpah	-6737
▁부탁드립니다	-6738
▁congrat	-6739
▁killing	-6740
▁shining	-6741
▁started	-6742
▁costumes	-6743
▁freaking	-6744
▁vampires	-6745
!!!!!!!!!!	-6746
▁BEAUTIFUL	-6747
▁favourite	-6748
.,	-6749
:(	-6750
BL	-6751
hi	-6752
ji	-6753
да	-6754
ᄍᄍ	-6755
ần	-6756
▁는	-6757
▁똘	-6758
▁밍	-6759
▁팝	-6760
▁휘	-6761
가가	-6762
그냥	-6763
께서	-6764
나와	-6765
달라	-6766
버전	-6767
보단	-6768
선을	-6769
소드	-6770
였네	-6771
이번	-6772
인은	-6773
저나	-6774
좋고	-6775
초이	-6776
추천	-6777
했고	-6778
호민	-6779
호진	-6780
💙💙	-6781
OOO	-6782
OST	-6783
SIC	-6784
leg	-6785
pen	-6786
sel	-6787
yyy	-6788
ᄒᄏᄒ	-6789
▁29	-6790
▁60	-6791
▁Sp	-6792
▁개무	-6793
▁경우	-6794
▁교육	-6795
▁그날	-6796
▁꼬꼬	-6797
▁나쁜	-6798
▁넷플	-6799
▁높이	-6800
▁몽글	-6801
▁소개	-6802
▁순수	-6803
▁여성	-6804
▁올해	-6805
▁우아	-6806
▁지니	-6807
▁피식	-6808
▁화면	-6809
▁흐뭇	-6810
나오는	-6811
다는게	-6812
하려고	-6813
😂😂😂	-6814
ABEL	-6815
ands	-6816
enar	-6817
▁ANG	-6818
▁BAG	-6819
▁FIN	-6820
▁Mus	-6821
▁NOW	-6822
▁adm	-6823
▁anj	-6824
▁exo	-6825
▁gym	-6826
▁tiế	-6827
▁đẹp	-6828
▁ᄒᄃᄃ	-6829
▁거기서	-6830
▁고맙다	-6831
▁끝나고	-6832
▁들으니	-6833
▁미소가	-6834
▁설거지	-6835
▁소중한	-6836
▁스트릿	-6837
▁싶은데	-6838
▁오늘의	-6839
▁유시아	-6840
▁이후로	-6841
▁캐럿들	-6842
▁크리스	-6843
거같은데	-6844
▁amor	-6845
▁doll	-6846
▁dong	-6847
▁pick	-6848
▁rela	-6849
▁teas	-6850
▁생각나네	-6851
▁creep	-6852
▁feliz	-6853
▁nggak	-6854
▁sudah	-6855
▁우리하영이	-6856
▁Really	-6857
▁adalah	-6858
▁catchy	-6859
▁entire	-6860
▁indust	-6861
▁skills	-6862
▁dancing	-6863
▁missing	-6864
▁stories	-6865
▁Congrats	-6866
▁Yangyang	-6867
▁everyday	-6868
▁scariest	-6869
ка	-6870
ون	-6871
يي	-6872
ạn	-6873
▁갱	-6874
▁견	-6875
▁쌤	-6876
▁엥	-6877
▁옥	-6878
▁쫌	-6879
거임	-6880
년도	-6881
님을	-6882
다른	-6883
러운	-6884
려나	-6885
리즘	-6886
린지	-6887
마마	-6888
부를	-6889
선생	-6890
소미	-6891
신이	-6892
아야	-6893
없고	-6894
었나	-6895
이요	-6896
제로	-6897
천재	-6898
AMA	-6899
ITA	-6900
UMB	-6901
YOU	-6902
ZEN	-6903
ena	-6904
pre	-6905
ura	-6906
wor	-6907
▁BI	-6908
▁ay	-6909
▁gw	-6910
▁개멋	-6911
▁거야	-6912
▁김용	-6913
▁나옴	-6914
▁너가	-6915
▁도경	-6916
▁말로	-6917
▁반성	-6918
▁병장	-6919
▁삶을	-6920
▁생긴	-6921
▁안가	-6922
▁안된	-6923
▁어지	-6924
▁없을	-6925
▁에리	-6926
▁여름	-6927
▁열일	-6928
▁유리	-6929
▁유튭	-6930
▁입고	-6931
▁차가	-6932
▁친정	-6933
▁호감	-6934
▁확률	-6935
▁훈련	-6936
고싶은	-6937
귀엽고	-6938
는건가	-6939
했네요	-6940
dden	-6941
omin	-6942
ouse	-6943
▁Hay	-6944
▁rom	-6945
▁sao	-6946
▁tão	-6947
▁~~~	-6948
▁군단장	-6949
▁그러면	-6950
▁낙하산	-6951
▁보여서	-6952
▁본인이	-6953
▁아버지	-6954
▁어릴때	-6955
▁오마이	-6956
▁울릉도	-6957
▁좋겠어	-6958
▁지호진	-6959
▁헤메코	-6960
▁홀리뱅	-6961
이었는데	-6962
ación	-6963
ience	-6964
irsty	-6965
▁YUTA	-6966
▁disc	-6967
▁ears	-6968
▁edit	-6969
▁jeon	-6970
▁llor	-6971
▁phải	-6972
▁star	-6973
▁turn	-6974
▁wkwk	-6975
▁개웃기넼	-6976
▁들으면서	-6977
▁목소리랑	-6978
▁싶었는데	-6979
▁아니에요	-6980
▁build	-6981
▁drama	-6982
▁estoy	-6983
▁impro	-6984
▁sense	-6985
▁사이코패스	-6986
▁Stream	-6987
▁beyond	-6988
▁eating	-6989
▁repeat	-6990
▁Another	-6991
▁chaotic	-6992
▁hairsty	-6993
▁continue	-6994
▁STREAMING	-6995
▁boyfriend	-6996
▁surprised	-6997
ᅲᅲᅲᅲᅲᅲᅲᅲᅲᅲᅲᅲᅲᅲᅲᅲ	-6998
><	-6999
JS	-7000
TI	-7001
za	-7002
ật	-7003
▁꼴	-7004
▁딴	-7005
▁쭈	-7006
▁칼	-7007
▁😁	-7008
겠당	-7009
공개	-7010
내내	-7011
돼서	-7012
듯한	-7013
라리	-7014
랜드	-7015
로마	-7016
뭐야	-7017
볼게	-7018
부모	-7019
시피	-7020
아도	-7021
애들	-7022
쟁이	-7023
치네	-7024
함을	-7025
해진	-7026
🥺🥺	-7027
his	-7028
isf	-7029
pun	-7030
ỉnh	-7031
▁Ga	-7032
▁XD	-7033
▁et	-7034
▁eu	-7035
▁ان	-7036
▁공포	-7037
▁룩북	-7038
▁바지	-7039
▁병사	-7040
▁보안	-7041
▁빼고	-7042
▁사형	-7043
▁선배	-7044
▁순살	-7045
▁슬프	-7046
▁안될	-7047
▁않게	-7048
▁영혼	-7049
▁예고	-7050
▁웃겼	-7051
▁유애	-7052
▁전국	-7053
▁전체	-7054
▁죽어	-7055
▁최강	-7056
▁하다	-7057
▁행님	-7058
▁호박	-7059
귀엽네	-7060
스타일	-7061
습니까	-7062
이예요	-7063
있는거	-7064
해야지	-7065
BACK	-7066
anti	-7067
bang	-7068
iled	-7069
inal	-7070
osas	-7071
ukan	-7072
▁BGT	-7073
▁BUT	-7074
▁DES	-7075
▁God	-7076
▁Sub	-7077
▁Yes	-7078
▁ago	-7079
▁bas	-7080
▁bts	-7081
▁dar	-7082
▁mul	-7083
▁sar	-7084
▁가사가	-7085
▁나오네	-7086
▁러시아	-7087
▁모든게	-7088
▁엄청난	-7089
▁업로드	-7090
▁없어요	-7091
▁이쁘네	-7092
▁있으니	-7093
▁좋으신	-7094
▁좋지만	-7095
▁한남자	-7096
ATION	-7097
PIECE	-7098
aming	-7099
eeeee	-7100
umber	-7101
ᅮᅮᅮᅮᅮ	-7102
▁2:00	-7103
▁LMAO	-7104
▁Lets	-7105
▁Next	-7106
▁Nice	-7107
▁fair	-7108
▁king	-7109
▁강호이님	-7110
▁보여주는	-7111
▁분위기가	-7112
▁세븐틴이	-7113
▁어울리는	-7114
▁재밌네요	-7115
▁BAGUS	-7116
▁crack	-7117
▁exerc	-7118
▁nhiều	-7119
▁reach	-7120
▁립제이언니	-7121
▁보여주세요	-7122
▁심장마비로	-7123
▁웅장해진다	-7124
▁좋아하는데	-7125
▁VISUAL	-7126
▁bujang	-7127
▁cannot	-7128
▁couldn	-7129
▁intern	-7130
▁melody	-7131
▁solist	-7132
▁sudden	-7133
▁worlds	-7134
▁스트로베리문	-7135
imakasih	-7136
ᄀᄏᄀᄏᄀᄏᄀᄏ	-7137
▁Tzuyang	-7138
▁jealous	-7139
▁respect	-7140
♡♡♡♡♡♡♡♡	-7141
▁Sungchan	-7142
▁describe	-7143
▁possible	-7144
▁relation	-7145
▁thinking	-7146
▁increíble	-7147
▁confidence	-7148
60	-7149
AC	-7150
zi	-7151
át	-7152
ᄋᄋ	-7153
▁м	-7154
▁밖	-7155
▁뽑	-7156
▁섬	-7157
▁잉	-7158
▁쪼	-7159
▁큥	-7160
▁턱	-7161
▁😊	-7162
것을	-7163
교육	-7164
남매	-7165
돌아	-7166
드립	-7167
미로	-7168
미숙	-7169
버림	-7170
비스	-7171
아나	-7172
웃기	-7173
위로	-7174
축하	-7175
케이	-7176
했을	-7177
AEN	-7178
OUP	-7179
atu	-7180
cia	-7181
com	-7182
iat	-7183
nnn	-7184
yun	-7185
▁28	-7186
▁90	-7187
▁><	-7188
▁가을	-7189
▁가지	-7190
▁거지	-7191
▁계획	-7192
▁나서	-7193
▁다양	-7194
▁달이	-7195
▁달콤	-7196
▁뒤로	-7197
▁디노	-7198
▁리더	-7199
▁말은	-7200
▁모야	-7201
▁몸매	-7202
▁미스	-7203
▁사탕	-7204
▁살인	-7205
▁성형	-7206
▁수능	-7207
▁시인	-7208
▁실명	-7209
▁싸움	-7210
▁아놔	-7211
▁양가	-7212
▁양산	-7213
▁어딨	-7214
▁없지	-7215
▁예상	-7216
▁우연	-7217
▁위에	-7218
▁율리	-7219
▁으엑	-7220
▁일찍	-7221
▁쩐다	-7222
▁취요	-7223
▁하게	-7224
▁합성	-7225
▁현역	-7226
▁형은	-7227
급상승	-7228
기전에	-7229
년동안	-7230
노랭이	-7231
보여요	-7232
시다니	-7233
이였다	-7234
ahan	-7235
iero	-7236
ilar	-7237
okok	-7238
uest	-7239
▁DON	-7240
▁gif	-7241
▁hop	-7242
▁int	-7243
▁org	-7244
▁pod	-7245
▁squ	-7246
▁궁금해	-7247
▁김영철	-7248
▁만나서	-7249
▁문태일	-7250
▁배우고	-7251
▁봐야지	-7252
▁에너지	-7253
▁옛날에	-7254
▁이번엔	-7255
▁힘들어	-7256
것같은데	-7257
셨습니다	-7258
▁FUNN	-7259
▁From	-7260
▁KITA	-7261
▁Stay	-7262
▁dino	-7263
▁expl	-7264
▁fast	-7265
▁luar	-7266
▁pure	-7267
▁room	-7268
▁sang	-7269
▁satu	-7270
▁thấy	-7271
▁type	-7272
▁나오는거	-7273
▁리니언니	-7274
▁못하는게	-7275
▁박민석이	-7276
▁영상보고	-7277
▁좋은정보	-7278
♡♡♡♡♡	-7279
aranya	-7280
asiado	-7281
ically	-7282
selves	-7283
▁Lucas	-7284
▁MUSIC	-7285
▁fails	-7286
▁seems	-7287
▁swear	-7288
▁개그맨들이	-7289
▁하나님께서	-7290
▁Savage	-7291
▁chance	-7292
▁ketawa	-7293
▁merece	-7294
▁missed	-7295
▁porque	-7296
▁meaning	-7297
▁sebelum	-7298
▁special	-7299
▁writing	-7300
▁improved	-7301
▁laughter	-7302
▁Beautiful	-7303
▁legendary	-7304
óc	-7305
وت	-7306
ậy	-7307
▁ن	-7308
▁굴	-7309
▁농	-7310
▁든	-7311
▁뜬	-7312
▁쉐	-7313
▁쌈	-7314
▁옮	-7315
▁좌	-7316
▁줌	-7317
▁척	-7318
▁💖	-7319
ます	-7320
같네	-7321
겠고	-7322
격이	-7323
길만	-7324
도가	-7325
라인	-7326
로서	-7327
만이	-7328
매일	-7329
미친	-7330
셔도	-7331
스에	-7332
신데	-7333
애애	-7334
어디	-7335
운서	-7336
운이	-7337
은영	-7338
준다	-7339
찬성	-7340
치지	-7341
ety	-7342
imi	-7343
ley	-7344
▁3.	-7345
▁AG	-7346
▁Hi	-7347
▁jo	-7348
▁để	-7349
▁по	-7350
▁공개	-7351
▁김치	-7352
▁너의	-7353
▁넣어	-7354
▁느낄	-7355
▁때가	-7356
▁띵곡	-7357
▁말해	-7358
▁밍꼬	-7359
▁복싱	-7360
▁슈퍼	-7361
▁아아	-7362
▁연애	-7363
▁오신	-7364
▁이뿌	-7365
▁잘하	-7366
▁조쉬	-7367
▁주로	-7368
▁충성	-7369
▁할수	-7370
거같음	-7371
곳에서	-7372
다는걸	-7373
되는거	-7374
만해도	-7375
봐야지	-7376
성으로	-7377
십시오	-7378
아버지	-7379
있어서	-7380
했다고	-7381
..!!	-7382
acca	-7383
augh	-7384
fter	-7385
like	-7386
oshi	-7387
ully	-7388
▁DAN	-7389
▁HOW	-7390
▁Jun	-7391
▁Ken	-7392
▁MAR	-7393
▁Ren	-7394
▁Tod	-7395
▁Way	-7396
▁Won	-7397
▁bed	-7398
▁bon	-7399
▁cur	-7400
▁hết	-7401
▁lee	-7402
▁rep	-7403
▁wkw	-7404
▁것이다	-7405
▁김민정	-7406
▁꼬꼬무	-7407
▁꾸삐님	-7408
▁넘어가	-7409
▁넘치는	-7410
▁다이어	-7411
▁닮았다	-7412
▁모습도	-7413
▁변백현	-7414
▁보이는	-7415
▁없으면	-7416
▁있다면	-7417
▁종국님	-7418
▁했더니	-7419
agian	-7420
alnya	-7421
amily	-7422
anjut	-7423
ayang	-7424
ching	-7425
hetic	-7426
illed	-7427
▁CONT	-7428
▁MISS	-7429
▁Xoxo	-7430
▁knew	-7431
▁saya	-7432
▁step	-7433
▁tamb	-7434
▁것입니다	-7435
▁삼성페이	-7436
▁에피소드	-7437
▁전설이다	-7438
▁종국오빠	-7439
▁alone	-7440
▁dapet	-7441
▁house	-7442
▁short	-7443
▁장구파이터	-7444
▁제자리걸음	-7445
▁좋겠습니다	-7446
▁중대장한테	-7447
▁하이라이트	-7448
▁PRETTY	-7449
▁extrem	-7450
▁looked	-7451
▁maknae	-7452
▁needed	-7453
▁sister	-7454
▁stairs	-7455
▁mention	-7456
▁passion	-7457
▁popular	-7458
▁smiling	-7459
▁기대하겠습니다	-7460
▁COMEBACK	-7461
▁emotions	-7462
▁industry	-7463
▁caratdeul	-7464
▁demasiado	-7465
▁talentosa	-7466
▁incredible	-7467
▁relationship	-7468
▁Congratulations	-7469
JE	-7470
OL	-7471
ao	-7472
si	-7473
én	-7474
ло	-7475
ом	-7476
ừa	-7477
▁쑥	-7478
▁짤	-7479
▁퀸	-7480
▁팩	-7481
▁폴	-7482
▁홈	-7483
▁흰	-7484
가를	-7485
겨서	-7486
레딧	-7487
몽글	-7488
미치	-7489
분은	-7490
새끼	-7491
아파	-7492
에에	-7493
영이	-7494
자를	-7495
잡고	-7496
증이	-7497
집에	-7498
편집	-7499
👍🏻	-7500
AIT	-7501
ISA	-7502
VES	-7503
ebr	-7504
ird	-7505
ăng	-7506
▁Le	-7507
▁Ng	-7508
▁그립	-7509
▁꾸준	-7510
▁날아	-7511
▁대학	-7512
▁뒤집	-7513
▁떠올	-7514
▁립제	-7515
▁마니	-7516
▁만남	-7517
▁맞춰	-7518
▁모니	-7519
▁못하	-7520
▁뭉클	-7521
▁밝은	-7522
▁뿌듯	-7523
▁산다	-7524
▁살고	-7525
▁상관	-7526
▁새벽	-7527
▁수원	-7528
▁앉아	-7529
▁언어	-7530
▁왔다	-7531
▁이랑	-7532
▁임시	-7533
▁자녀	-7534
▁죽음	-7535
▁태풍	-7536
▁편지	-7537
고구마	-7538
긴한데	-7539
달라고	-7540
답니다	-7541
립제이	-7542
민쩌미	-7543
버리고	-7544
옵니다	-7545
화이팅	-7546
💚💚💚	-7547
XOXO	-7548
ikan	-7549
ingo	-7550
ᄐᄏᄐᄏ	-7551
▁,,,	-7552
▁AKU	-7553
▁Gak	-7554
▁Mas	-7555
▁Seb	-7556
▁age	-7557
▁ask	-7558
▁bes	-7559
▁kjk	-7560
▁lại	-7561
▁mid	-7562
▁nhà	-7563
▁đến	-7564
▁궁금한	-7565
▁그런지	-7566
▁나오고	-7567
▁못하고	-7568
▁무서움	-7569
▁선물로	-7570
▁소름끼	-7571
▁안되서	-7572
▁오은영	-7573
▁이상한	-7574
▁일반인	-7575
▁일주일	-7576
▁장윤정	-7577
▁집에서	-7578
▁차라리	-7579
▁추억이	-7580
▁충분히	-7581
▁텐션이	-7582
▁하다가	-7583
▁하이틴	-7584
보고싶다	-7585
icker	-7586
onsep	-7587
where	-7588
▁Fact	-7589
▁GIVE	-7590
▁HAPP	-7591
▁King	-7592
▁Look	-7593
▁atau	-7594
▁baek	-7595
▁baha	-7596
▁bare	-7597
▁diff	-7598
▁fell	-7599
▁kend	-7600
▁lose	-7601
▁menc	-7602
▁vida	-7603
▁đừng	-7604
▁군대에서	-7605
▁멋있어요	-7606
▁몽글몽글	-7607
▁세상에서	-7608
▁운전미숙	-7609
▁잘하네요	-7610
orting	-7611
terday	-7612
▁Never	-7613
▁agree	-7614
▁color	-7615
▁kayak	-7616
▁nunca	-7617
▁scene	-7618
▁tetep	-7619
▁대구돈까스	-7620
▁레오제이님	-7621
▁불러주세요	-7622
▁called	-7623
▁sampai	-7624
▁satisf	-7625
▁trophy	-7626
▁Imagine	-7627
▁history	-7628
▁morning	-7629
▁similar	-7630
▁stylist	-7631
▁terbaik	-7632
▁whenever	-7633
▁yourself	-7634
▁everytime	-7635
▁MASTERPIECE	-7636
-2	-7637
BS	-7638
DE	-7639
bh	-7640
сн	-7641
را	-7642
ها	-7643
ốn	-7644
▁ف	-7645
▁ᄊ	-7646
▁덩	-7647
▁멍	-7648
▁며	-7649
▁묵	-7650
▁숫	-7651
▁츄	-7652
▁컷	-7653
▁흠	-7654
▁😩	-7655
겟다	-7656
기대	-7657
나가	-7658
네용	-7659
년생	-7660
년에	-7661
들만	-7662
보내	-7663
시작	-7664
시지	-7665
식을	-7666
았던	-7667
어리	-7668
연우	-7669
웃김	-7670
이도	-7671
이자	-7672
이죠	-7673
준식	-7674
한지	-7675
𐌅𐌅	-7676
AGE	-7677
ELL	-7678
aac	-7679
dad	-7680
imu	-7681
log	-7682
mat	-7683
uhu	-7684
▁NG	-7685
▁간부	-7686
▁갖고	-7687
▁굳이	-7688
▁그건	-7689
▁기만	-7690
▁남친	-7691
▁늦게	-7692
▁당시	-7693
▁만났	-7694
▁면허	-7695
▁몸이	-7696
▁삶이	-7697
▁세월	-7698
▁아까	-7699
▁앞에	-7700
▁여태	-7701
▁연습	-7702
▁오류	-7703
▁우왕	-7704
▁은은	-7705
▁주작	-7706
▁초록	-7707
▁편의	-7708
▁평온	-7709
▁한테	-7710
▁해줘	-7711
▁현지	-7712
▁🥺🥺	-7713
거든요	-7714
고싶어	-7715
드리고	-7716
면서도	-7717
보다는	-7718
분들은	-7719
아이돌	-7720
이구나	-7721
이었다	-7722
지는데	-7723
키스탄	-7724
IIII	-7725
beat	-7726
eddy	-7727
lbum	-7728
outh	-7729
▁bài	-7730
▁cop	-7731
▁ded	-7732
▁emp	-7733
▁giờ	-7734
▁kep	-7735
▁pel	-7736
▁ses	-7737
▁upd	-7738
▁감정이	-7739
▁굉장히	-7740
▁똑소리	-7741
▁믿으면	-7742
▁부모가	-7743
▁생각도	-7744
▁얼굴에	-7745
▁유투브	-7746
▁이라고	-7747
▁이조합	-7748
▁일이칠	-7749
▁훌륭한	-7750
고싶어요	-7751
귀여워요	-7752
닼ᄏᄏᄏ	-7753
이라는게	-7754
aight	-7755
onten	-7756
otect	-7757
right	-7758
verse	-7759
▁2:20	-7760
▁Ming	-7761
▁WHAT	-7762
▁conc	-7763
▁fits	-7764
▁goes	-7765
▁hell	-7766
▁left	-7767
▁lucu	-7768
▁mess	-7769
▁sung	-7770
▁wear	-7771
▁그나저나	-7772
▁노래하는	-7773
▁다이어트	-7774
▁대대장이	-7775
▁듣자마자	-7776
▁싶습니다	-7777
▁엄마한테	-7778
▁중대장의	-7779
▁지금처럼	-7780
▁효진초이	-7781
irahat	-7782
▁ANGEL	-7783
▁Angel	-7784
▁VOICE	-7785
▁fried	-7786
▁gener	-7787
▁hebat	-7788
▁idols	-7789
▁later	-7790
▁perfe	-7791
▁wants	-7792
▁ᄒᄒᄒᄒᄒ	-7793
▁돌아와줘서	-7794
▁인기급상승	-7795
▁Renjun	-7796
▁choreo	-7797
▁family	-7798
▁jisung	-7799
▁savage	-7800
esthetic	-7801
▁Ganteng	-7802
▁Perfect	-7803
▁extraño	-7804
▁healing	-7805
▁수고하셨습니다	-7806
▁listened	-7807
▁presence	-7808
▁straight	-7809
▁stunning	-7810
▁yangyang	-7811
▁confident	-7812
▁interesting	-7813
IA	-7814
IB	-7815
RR	-7816
Tu	-7817
cm	-7818
ni	-7819
ăn	-7820
ưa	-7821
ть	-7822
▁ح	-7823
▁ش	-7824
▁ᄐ	-7825
▁늙	-7826
▁닭	-7827
▁됬	-7828
▁쌉	-7829
▁웬	-7830
▁을	-7831
▁퇴	-7832
▁😅	-7833
あり	-7834
간에	-7835
국가	-7836
기들	-7837
김치	-7838
까봐	-7839
나도	-7840
년을	-7841
대상	-7842
데이	-7843
도로	-7844
미즈	-7845
보임	-7846
비지	-7847
오는	-7848
와이	-7849
인터	-7850
장구	-7851
정을	-7852
한것	-7853
행님	-7854
🔥❤	-7855
EED	-7856
JUN	-7857
iee	-7858
iny	-7859
ras	-7860
uer	-7861
ush	-7862
▁TR	-7863
▁Ya	-7864
▁cb	-7865
▁lg	-7866
▁과학	-7867
▁귀찮	-7868
▁끌려	-7869
▁대충	-7870
▁두개	-7871
▁등등	-7872
▁만일	-7873
▁많다	-7874
▁맞고	-7875
▁뭐임	-7876
▁바닥	-7877
▁발견	-7878
▁붙어	-7879
▁사망	-7880
▁새끼	-7881
▁소화	-7882
▁수록	-7883
▁실험	-7884
▁어렸	-7885
▁요새	-7886
▁유타	-7887
▁이과	-7888
▁이수	-7889
▁인물	-7890
▁저걸	-7891
▁정재	-7892
▁주고	-7893
▁차분	-7894
▁초코	-7895
▁캔디	-7896
▁핑계	-7897
▁하던	-7898
▁화가	-7899
는데도	-7900
보네요	-7901
습니당	-7902
였으면	-7903
있네요	-7904
자들이	-7905
졌네요	-7906
포인트	-7907
합시다	-7908
했다는	-7909
..??	-7910
akep	-7911
ents	-7912
erja	-7913
ince	-7914
iyow	-7915
line	-7916
oozi	-7917
ored	-7918
▁Voc	-7919
▁beh	-7920
▁cel	-7921
▁dep	-7922
▁gab	-7923
▁kim	-7924
▁kun	-7925
▁non	-7926
▁sol	-7927
▁그자체	-7928
▁기묘함	-7929
▁노래에	-7930
▁다르게	-7931
▁많은데	-7932
▁멋있는	-7933
▁무서웠	-7934
▁뮤비도	-7935
▁부르는	-7936
▁비번이	-7937
▁뻐드렁	-7938
▁사라져	-7939
▁사람의	-7940
▁실화냐	-7941
▁심장이	-7942
▁어려운	-7943
▁얼굴도	-7944
▁여자가	-7945
▁정국이	-7946
▁중학교	-7947
있습니다	-7948
️‍️‍	-7949
angen	-7950
ichil	-7951
ourse	-7952
▁2000	-7953
▁2:01	-7954
▁Idol	-7955
▁Lisa	-7956
▁UAEN	-7957
▁VAMP	-7958
▁anak	-7959
▁cuma	-7960
▁easy	-7961
▁귀엽네요	-7962
▁목소리로	-7963
▁알고리즘	-7964
▁없었는데	-7965
▁여기까지	-7966
▁있을까요	-7967
▁카리나는	-7968
▁ended	-7969
▁learn	-7970
▁느껴지네요	-7971
▁NCTZEN	-7972
▁Season	-7973
▁disini	-7974
▁dreams	-7975
▁groups	-7976
▁paling	-7977
▁scream	-7978
▁upload	-7979
▁anymore	-7980
▁sarapan	-7981
▁telling	-7982
▁probably	-7983
▁extremely	-7984
▁hairstyle	-7985
▁happiness	-7986
▁choreography	-7987
▁entertaining	-7988
22	-7989
IU	-7990
ub	-7991
zo	-7992
ác	-7993
ер	-7994
ực	-7995
▁몬	-7996
▁므	-7997
▁앙	-7998
▁쫙	-7999
▁콩	-8000
▁푹	-8001
❌⭕	-8002
って	-8003
그리	-8004
다음	-8005
드업	-8006
로써	-8007
말로	-8008
명의	-8009
미가	-8010
미터	-8011
시원	-8012
어진	-8013
없어	-8014
없음	-8015
위에	-8016
점이	-8017
조차	-8018
천원	-8019
커플	-8020
크림	-8021
트콤	-8022
티즈	-8023
파벳	-8024
퓨터	-8025
했지	-8026
👏🏻	-8027
<33	-8028
GET	-8029
aja	-8030
che	-8031
fir	-8032
gia	-8033
ots	-8034
▁->	-8035
▁Ap	-8036
▁GA	-8037
▁Op	-8038
▁بي	-8039
▁검은	-8040
▁군필	-8041
▁김대	-8042
▁나무	-8043
▁닮아	-8044
▁동물	-8045
▁되지	-8046
▁듣게	-8047
▁많고	-8048
▁모기	-8049
▁무시	-8050
▁베이	-8051
▁심각	-8052
▁써야	-8053
▁아우	-8054
▁안됨	-8055
▁업계	-8056
▁없애	-8057
▁올리	-8058
▁유느	-8059
▁일을	-8060
▁저만	-8061
▁짝퉁	-8062
▁추락	-8063
▁해외	-8064
▁했네	-8065
▁확인	-8066
▁흑발	-8067
거같다	-8068
거라고	-8069
것같다	-8070
그래도	-8071
는건데	-8072
레이션	-8073
반호이	-8074
버리네	-8075
유튜버	-8076
이니까	-8077
이로그	-8078
있으면	-8079
졌는데	-8080
atur	-8081
mber	-8082
oice	-8083
ores	-8084
osed	-8085
tube	-8086
wave	-8087
ᄅᄏᄅᄏ	-8088
ᅡᅡᅡᅡ	-8089
▁BOP	-8090
▁DID	-8091
▁LIT	-8092
▁Pls	-8093
▁WHY	-8094
▁Wor	-8095
▁acr	-8096
▁cer	-8097
▁dou	-8098
▁dud	-8099
▁dyn	-8100
▁rất	-8101
▁강아지	-8102
▁개꿀잼	-8103
▁개좋아	-8104
▁고생많	-8105
▁동욱이	-8106
▁살리신	-8107
▁않는다	-8108
▁얘들아	-8109
▁예수를	-8110
▁요즘은	-8111
▁응원해	-8112
▁인터뷰	-8113
▁잘해요	-8114
▁지나가	-8115
▁진정한	-8116
▁친구들	-8117
▁크로마	-8118
▁해주는	-8119
☆☆☆☆	-8120
하지말고	-8121
ANGAN	-8122
ising	-8123
▁1000	-8124
▁4:25	-8125
▁9:50	-8126
▁BACK	-8127
▁Cute	-8128
▁Edit	-8129
▁FACT	-8130
▁JENN	-8131
▁Very	-8132
▁akan	-8133
▁deep	-8134
▁fant	-8135
▁mant	-8136
▁menj	-8137
▁warm	-8138
▁đỉnh	-8139
▁감사하다	-8140
▁곽튜브님	-8141
▁궁금하다	-8142
▁너무재밌	-8143
▁만들어주	-8144
▁아니냐고	-8145
▁응원하고	-8146
▁중국했네	-8147
▁😭😭😭😭	-8148
이었습니다	-8149
,,,,,,	-8150
▁Awali	-8151
▁FUNNY	-8152
▁Favor	-8153
▁Music	-8154
▁count	-8155
▁exist	-8156
▁malah	-8157
▁marav	-8158
▁money	-8159
▁nhưng	-8160
▁relax	-8161
▁그리스도를	-8162
▁돌아왔구나	-8163
▁시즌비시즌	-8164
▁covers	-8165
▁insane	-8166
▁number	-8167
▁setiap	-8168
▁simple	-8169
▁wanted	-8170
oooooooo	-8171
▁Czennies	-8172
▁Jongkook	-8173
▁building	-8174
▁creative	-8175
▁swimming	-8176
▁aesthetic	-8177
),	-8178
LI	-8179
SH	-8180
js	-8181
ye	-8182
ро	-8183
มา	-8184
▁́	-8185
▁ج	-8186
▁곁	-8187
▁뻘	-8188
▁왓	-8189
▁쿨	-8190
▁😘	-8191
갔다	-8192
걸까	-8193
꺼야	-8194
냐곸	-8195
년대	-8196
년차	-8197
대는	-8198
랄까	-8199
로도	-8200
롭고	-8201
르신	-8202
민이	-8203
바람	-8204
본다	-8205
봐라	-8206
봐서	-8207
상황	-8208
성을	-8209
승전	-8210
실수	-8211
애가	-8212
예스	-8213
요리	-8214
장을	-8215
지금	-8216
짜리	-8217
하루	-8218
하이	-8219
허니	-8220
홧팅	-8221
🇧🇷	-8222
BUM	-8223
IRE	-8224
abe	-8225
ala	-8226
she	-8227
▁AW	-8228
▁Ad	-8229
▁Ay	-8230
▁BB	-8231
▁Bu	-8232
▁KC	-8233
▁Vi	-8234
▁cm	-8235
▁gì	-8236
▁ik	-8237
▁pa	-8238
▁sắ	-8239
▁um	-8240
▁не	-8241
▁ᅲᅮ	-8242
▁가까	-8243
▁개빡	-8244
▁걸어	-8245
▁결제	-8246
▁고정	-8247
▁공산	-8248
▁냉동	-8249
▁덤덤	-8250
▁도장	-8251
▁또한	-8252
▁마늘	-8253
▁마편	-8254
▁모아	-8255
▁밥먹	-8256
▁삶의	-8257
▁샤샤	-8258
▁술을	-8259
▁안쓰	-8260
▁어딜	-8261
▁어때	-8262
▁역사	-8263
▁이쁨	-8264
▁입대	-8265
▁전문	-8266
▁절로	-8267
▁점심	-8268
▁주말	-8269
▁지키	-8270
▁착한	-8271
▁치료	-8272
▁팬들	-8273
▁포상	-8274
▁핑크	-8275
▁해찬	-8276
▁흑우	-8277
기까지	-8278
때까지	-8279
레전드	-8280
보이스	-8281
시리즈	-8282
았네요	-8283
언니랑	-8284
예쁘다	-8285
적이야	-8286
andu	-8287
aste	-8288
ians	-8289
orry	-8290
~!!!	-8291
ᄐᄐᄐᄐ	-8292
▁BAB	-8293
▁ONE	-8294
▁acc	-8295
▁học	-8296
▁kek	-8297
▁mot	-8298
▁seg	-8299
▁với	-8300
▁간만에	-8301
▁감정을	-8302
▁나에게	-8303
▁나혼자	-8304
▁남자가	-8305
▁넷플릭	-8306
▁동생이	-8307
▁마시고	-8308
▁말투가	-8309
▁방법을	-8310
▁불러주	-8311
▁상훈이	-8312
▁생각함	-8313
▁소리가	-8314
▁쏘대장	-8315
▁아무렇	-8316
▁아빠랑	-8317
▁안되고	-8318
▁않을까	-8319
▁언니는	-8320
▁엄준식	-8321
▁이지은	-8322
▁자신을	-8323
▁잘했어	-8324
▁재밌음	-8325
▁정도면	-8326
▁조용히	-8327
▁즐거운	-8328
▁해줘서	-8329
▁힘들었	-8330
스러워요	-8331
ature	-8332
ities	-8333
▁100%	-8334
▁FROM	-8335
▁Lagu	-8336
▁MORE	-8337
▁Stan	-8338
▁bawa	-8339
▁gosh	-8340
▁kaya	-8341
▁lost	-8342
▁pert	-8343
▁poem	-8344
▁slow	-8345
▁vari	-8346
▁너무웃겨	-8347
▁아시는분	-8348
▁영상으로	-8349
▁제이제이	-8350
▁좀비게임	-8351
▁해주셔서	-8352
ground	-8353
▁DESER	-8354
▁HAPPY	-8355
▁Keren	-8356
▁along	-8357
▁chang	-8358
▁cheer	-8359
▁label	-8360
▁means	-8361
▁mundo	-8362
▁punya	-8363
▁álbum	-8364
▁수고했어요	-8365
▁에이치원님	-8366
▁영상이네요	-8367
▁import	-8368
▁introd	-8369
▁menang	-8370
▁naneun	-8371
▁nangis	-8372
▁transm	-8373
▁만들어주셔서	-8374
▁축하드립니다	-8375
▁한사랑산악회	-8376
AHAHAHAH	-8377
▁Gracias	-8378
헉헉헉헉헉헉헉헉	-8379
▁Indonesia	-8380
▁bangetttt	-8381
▁istirahat	-8382
............	-8383
!"	-8384
>>	-8385
FF	-8386
GA	-8387
XT	-8388
vo	-8389
we	-8390
~^	-8391
го	-8392
ᄋᄆ	-8393
ớc	-8394
▁×	-8395
▁랄	-8396
▁맴	-8397
▁십	-8398
▁앵	-8399
▁염	-8400
▁짬	-8401
▁쩔	-8402
공주	-8403
대단	-8404
덩이	-8405
두고	-8406
둘러	-8407
래도	-8408
메달	-8409
모두	-8410
모자	-8411
무덤	-8412
미디	-8413
반복	-8414
비가	-8415
사건	-8416
사일	-8417
스를	-8418
스템	-8419
신다	-8420
았음	-8421
오면	-8422
인숙	-8423
작품	-8424
저기	-8425
중국	-8426
친다	-8427
한건	-8428
?!!	-8429
ied	-8430
ree	-8431
www	-8432
ũng	-8433
▁02	-8434
▁At	-8435
▁BR	-8436
▁Di	-8437
▁Iu	-8438
▁JO	-8439
▁Mr	-8440
▁SN	-8441
▁ol	-8442
▁đã	-8443
▁ᄍᄍ	-8444
▁개콘	-8445
▁것만	-8446
▁곡이	-8447
▁귀에	-8448
▁기여	-8449
▁나타	-8450
▁너를	-8451
▁뇌물	-8452
▁눈빛	-8453
▁느꼈	-8454
▁다해	-8455
▁대답	-8456
▁두번	-8457
▁만날	-8458
▁맛이	-8459
▁머선	-8460
▁뮤직	-8461
▁방금	-8462
▁벅차	-8463
▁부를	-8464
▁비행	-8465
▁상병	-8466
▁수자	-8467
▁시끄	-8468
▁신선	-8469
▁아래	-8470
▁않나	-8471
▁연구	-8472
▁연락	-8473
▁오오	-8474
▁온몸	-8475
▁유용	-8476
▁은근	-8477
▁작업	-8478
▁잡아	-8479
▁장녀	-8480
▁즐기	-8481
▁진행	-8482
▁짜릿	-8483
▁천국	-8484
▁카드	-8485
▁파트	-8486
▁한글	-8487
▁헬창	-8488
나봐요	-8489
는거죠	-8490
레이너	-8491
렸는데	-8492
부럽다	-8493
아니고	-8494
어가니	-8495
적이다	-8496
할로윈	-8497
ahhh	-8498
hile	-8499
ichi	-8500
▁GOT	-8501
▁KIM	-8502
▁Lit	-8503
▁Sen	-8504
▁ass	-8505
▁cup	-8506
▁dej	-8507
▁dik	-8508
▁jok	-8509
▁joy	-8510
▁low	-8511
▁pay	-8512
▁가르쳐	-8513
▁그만큼	-8514
▁누구나	-8515
▁느끼는	-8516
▁데이터	-8517
▁레시피	-8518
▁많아서	-8519
▁몰라서	-8520
▁보라님	-8521
▁빌드업	-8522
▁사줘요	-8523
▁속으로	-8524
▁쓰는데	-8525
▁알았다	-8526
▁엄인숙	-8527
▁와이프	-8528
▁왔는데	-8529
▁우리를	-8530
▁운동을	-8531
▁이런게	-8532
▁이미지	-8533
▁있다니	-8534
▁정국아	-8535
▁정신차	-8536
▁좋아해	-8537
▁한번도	-8538
▁😍😍😍	-8539
베키스탄	-8540
하십니다	-8541
했었는데	-8542
aving	-8543
orang	-8544
perti	-8545
▁Damn	-8546
▁Some	-8547
▁WAIT	-8548
▁army	-8549
▁baik	-8550
▁cũng	-8551
▁fail	-8552
▁fine	-8553
▁gran	-8554
▁gắng	-8555
▁hati	-8556
▁hurt	-8557
▁nghe	-8558
▁pake	-8559
▁took	-8560
▁궁금해요	-8561
▁놀아주는	-8562
▁들으니까	-8563
▁레전드네	-8564
▁모르겠다	-8565
▁않습니다	-8566
▁어제보다	-8567
▁유일하게	-8568
▁있었으면	-8569
▁있으니까	-8570
▁학교에서	-8571
▁행복해요	-8572
▁Voice	-8573
▁YouTu	-8574
▁bella	-8575
▁clear	-8576
▁nanti	-8577
▁suara	-8578
▁thumb	-8579
▁wrong	-8580
▁보고싶었다	-8581
▁알려주세요	-8582
okoknya	-8583
▁behind	-8584
▁konten	-8585
▁quiero	-8586
▁record	-8587
▁Lagunya	-8588
▁nothing	-8589
▁showing	-8590
▁solista	-8591
▁variety	-8592
▁exercise	-8593
▁suddenly	-8594
▁Baekhyunee	-8595
▁background	-8596
▁experience	-8597
30	-8598
55	-8599
DS	-8600
KW	-8601
MY	-8602
ex	-8603
̊̈	-8604
ль	-8605
ức	-8606
▁ᆞ	-8607
▁ᆢ	-8608
▁뚫	-8609
▁쩌	-8610
▁🔥	-8611
계의	-8612
고가	-8613
고기	-8614
다운	-8615
두부	-8616
력을	-8617
림이	-8618
무슨	-8619
바로	-8620
버려	-8621
생겼	-8622
셔츠	-8623
애기	-8624
연기	-8625
인싸	-8626
인형	-8627
잘해	-8628
줄게	-8629
쩐지	-8630
하늘	-8631
하죠	-8632
ARI	-8633
ATE	-8634
OUD	-8635
ale	-8636
ats	-8637
ead	-8638
isi	-8639
tok	-8640
▁;;	-8641
▁El	-8642
▁On	-8643
▁Or	-8644
▁Un	-8645
▁Wo	-8646
▁nó	-8647
▁ᄋᄌ	-8648
▁가짜	-8649
▁고통	-8650
▁구름	-8651
▁기회	-8652
▁끝난	-8653
▁나갈	-8654
▁난다	-8655
▁너는	-8656
▁돌잼	-8657
▁떠나	-8658
▁말한	-8659
▁맘에	-8660
▁몇개	-8661
▁모를	-8662
▁반대	-8663
▁방구	-8664
▁베놈	-8665
▁보험	-8666
▁뿌링	-8667
▁상큼	-8668
▁새삼	-8669
▁생방	-8670
▁아고	-8671
▁양념	-8672
▁예쁨	-8673
▁이럴	-8674
▁잊고	-8675
▁자동	-8676
▁잘할	-8677
▁쟈니	-8678
▁저를	-8679
▁중앙	-8680
▁짧은	-8681
▁춤을	-8682
▁투표	-8683
▁평범	-8684
▁포뇨	-8685
▁피야	-8686
▁해준	-8687
▁환상	-8688
▁😭❤	-8689
같네요	-8690
개웃겨	-8691
납니다	-8692
닼ᄏᄏ	-8693
듭니다	-8694
만하면	-8695
보는거	-8696
분들도	-8697
으시네	-8698
인터넷	-8699
하다니	-8700
HHHH	-8701
atau	-8702
buat	-8703
irik	-8704
ᄀᄏᄀᄀ	-8705
▁35.	-8706
▁Btw	-8707
▁HIS	-8708
▁KCM	-8709
▁bag	-8710
▁dit	-8711
▁mes	-8712
▁sac	-8713
▁sun	-8714
▁❤❤❤	-8715
▁거기에	-8716
▁게다가	-8717
▁그들은	-8718
▁금메달	-8719
▁꾸준히	-8720
▁날아가	-8721
▁너무좋	-8722
▁댓글을	-8723
▁되는데	-8724
▁드네요	-8725
▁들어서	-8726
▁매력이	-8727
▁머리가	-8728
▁멋있고	-8729
▁보는거	-8730
▁부러운	-8731
▁살수있	-8732
▁서둘러	-8733
▁세계관	-8734
▁셰프님	-8735
▁시미즈	-8736
▁싶어서	-8737
▁아니었	-8738
▁아들이	-8739
▁알파벳	-8740
▁어이없	-8741
▁언니의	-8742
▁역시나	-8743
▁이쁜데	-8744
▁일본은	-8745
▁일어나	-8746
▁자컨팀	-8747
▁저번에	-8748
▁축하해	-8749
▁침착맨	-8750
▁타이틀	-8751
▁편하게	-8752
▁한다고	-8753
♥♥♥♥	-8754
ENTED	-8755
annya	-8756
entar	-8757
inger	-8758
▁Kita	-8759
▁NEED	-8760
▁Okay	-8761
▁WayV	-8762
▁YOUR	-8763
▁home	-8764
▁가비님이	-8765
▁고생하셨	-8766
▁김종국이	-8767
▁대박나자	-8768
▁모자이크	-8769
▁브이로그	-8770
▁세븐틴은	-8771
▁아이키는	-8772
▁완벽하다	-8773
▁익어가니	-8774
▁장삐쭈는	-8775
▁종국형님	-8776
▁피식대학	-8777
hahaha	-8778
▁After	-8779
▁Isaac	-8780
▁Somii	-8781
▁cakep	-8782
▁goals	-8783
▁hacer	-8784
▁hours	-8785
▁hyung	-8786
▁stuck	-8787
▁todos	-8788
▁가변차로는	-8789
▁기대합니다	-8790
▁생각합니다	-8791
▁이렇게까지	-8792
▁좋아합니다	-8793
▁행복합니다	-8794
▁Always	-8795
▁JANGAN	-8796
▁JENNIE	-8797
▁course	-8798
▁genius	-8799
▁kendor	-8800
▁llorar	-8801
▁notice	-8802
▁transl	-8803
onsisten	-8804
▁cuteeee	-8805
▁ilichil	-8806
▁impress	-8807
▁protect	-8808
▁running	-8809
▁comments	-8810
▁funniest	-8811
▁interact	-8812
▁powerful	-8813
▁ᅲᅲᅲᅲᅲᅲᅲᅲ	-8814
▁Showmaker	-8815
▁references	-8816
CA	-8817
MP	-8818
bb	-8819
uj	-8820
ys	-8821
ли	-8822
▁С	-8823
▁궁	-8824
▁권	-8825
▁낫	-8826
▁덮	-8827
▁쉴	-8828
▁씩	-8829
▁🤍	-8830
すぎ	-8831
가네	-8832
겨주	-8833
결혼	-8834
고추	-8835
그룹	-8836
기부	-8837
긴데	-8838
들고	-8839
롭게	-8840
리기	-8841
살이	-8842
알고	-8843
엔딩	-8844
였음	-8845
올때	-8846
위해	-8847
음식	-8848
일에	-8849
자로	-8850
존나	-8851
킹받	-8852
화를	-8853
aff	-8854
aku	-8855
ens	-8856
ici	-8857
▁80	-8858
▁99	-8859
▁AB	-8860
▁KE	-8861
▁ho	-8862
▁sự	-8863
▁가만	-8864
▁가진	-8865
▁검사	-8866
▁과연	-8867
▁귀욤	-8868
▁그려	-8869
▁그룹	-8870
▁깔끔	-8871
▁꾸러	-8872
▁노제	-8873
▁담주	-8874
▁덕질	-8875
▁독기	-8876
▁되네	-8877
▁될듯	-8878
▁때는	-8879
▁만족	-8880
▁말할	-8881
▁맞나	-8882
▁멘트	-8883
▁명수	-8884
▁배고	-8885
▁버전	-8886
▁복수	-8887
▁부드	-8888
▁부활	-8889
▁분노	-8890
▁비교	-8891
▁쉬고	-8892
▁스쿼	-8893
▁슬퍼	-8894
▁악수	-8895
▁어리	-8896
▁용디	-8897
▁우린	-8898
▁우주	-8899
▁유도	-8900
▁이마	-8901
▁인동	-8902
▁저건	-8903
▁죄다	-8904
▁지존	-8905
▁직업	-8906
▁찍고	-8907
▁찬성	-8908
▁챙기	-8909
▁취향	-8910
▁카톡	-8911
▁파티	-8912
▁하니	-8913
▁하실	-8914
▁합방	-8915
▁환경	-8916
▁휴대	-8917
갔는데	-8918
같아서	-8919
리는데	-8920
메리카	-8921
봅시다	-8922
사투리	-8923
아이유	-8924
잘하는	-8925
지않고	-8926
하는건	-8927
PINK	-8928
Somi	-8929
ahal	-8930
asty	-8931
enom	-8932
form	-8933
nail	-8934
▁Att	-8935
▁DIS	-8936
▁ENG	-8937
▁Eng	-8938
▁HEL	-8939
▁SAY	-8940
▁SOM	-8941
▁buy	-8942
▁bạn	-8943
▁idk	-8944
▁luv	-8945
▁pol	-8946
▁tôi	-8947
▁vis	-8948
▁가능한	-8949
▁귀엽게	-8950
▁김용식	-8951
▁돌아가	-8952
▁되나요	-8953
▁들어옴	-8954
▁많이컸	-8955
▁멋지고	-8956
▁문제가	-8957
▁뭐에요	-8958
▁버논이	-8959
▁뿌링클	-8960
▁서비스	-8961
▁손으로	-8962
▁신병은	-8963
▁아파트	-8964
▁알았네	-8965
▁어떡해	-8966
▁어지러	-8967
▁언젠가	-8968
▁없는거	-8969
▁예능인	-8970
▁요남님	-8971
▁우리도	-8972
▁위로가	-8973
▁이것은	-8974
▁이뻐서	-8975
▁이수근	-8976
▁있었다	-8977
▁자세히	-8978
▁잘생긴	-8979
▁주휘님	-8980
▁중국인	-8981
▁지렸다	-8982
▁지린다	-8983
▁찐으로	-8984
▁착하고	-8985
▁파이터	-8986
▁편의점	-8987
▁형님들	-8988
ヲヲヲヲ	-8989
으셨어요	-8990
😂😂😂😂	-8991
ANYAK	-8992
ampan	-8993
ostal	-8994
▁Bang	-8995
▁SAMA	-8996
▁SUKA	-8997
▁WILL	-8998
▁half	-8999
▁kata	-9000
▁pare	-9001
▁role	-9002
▁teng	-9003
▁감기조심	-9004
▁감스트님	-9005
▁개귀엽네	-9006
▁떨어져도	-9007
▁목소리만	-9008
▁반호이님	-9009
▁보는내내	-9010
▁순이언니	-9011
▁스타일링	-9012
▁시어머님	-9013
▁아이돌이	-9014
▁아침부터	-9015
▁않았는데	-9016
▁율리예스	-9017
▁응원해요	-9018
▁이번에도	-9019
▁이상하게	-9020
▁일본여자	-9021
▁축하해요	-9022
▁크로마키	-9023
ciendo	-9024
▁SEMUA	-9025
▁Teddy	-9026
▁check	-9027
▁dedic	-9028
▁kiyow	-9029
▁least	-9030
▁nuest	-9031
▁sehat	-9032
▁senin	-9033
▁tidur	-9034
▁trust	-9035
▁생각나네요	-9036
▁역대급으로	-9037
▁Joshua	-9038
▁comedy	-9039
▁makeup	-9040
▁others	-9041
▁verdad	-9042
▁voting	-9043
▁많으셨습니다	-9044
▁membuat	-9045
▁rappers	-9046
▁bringing	-9047
▁streamingnya	-9048
((	-9049
-^	-9050
HD	-9051
بي	-9052
▁Z	-9053
▁ص	-9054
▁꽉	-9055
▁꾹	-9056
▁썼	-9057
▁🖤	-9058
▁🤩	-9059
개그	-9060
겨울	-9061
냐구	-9062
네스	-9063
동네	-9064
른다	-9065
리한	-9066
만명	-9067
먹을	-9068
문이	-9069
미소	-9070
바닥	-9071
받을	-9072
손실	-9073
시카	-9074
신부	-9075
어여	-9076
였던	-9077
왔다	-9078
우면	-9079
이기	-9080
지드	-9081
출신	-9082
치면	-9083
타카	-9084
펩시	-9085
해져	-9086
혀서	-9087
호가	-9088
.^^	-9089
ALS	-9090
CON	-9091
OME	-9092
UNG	-9093
got	-9094
kin	-9095
leh	-9096
sss	-9097
▁:3	-9098
▁Pe	-9099
▁XI	-9100
▁ev	-9101
▁đó	-9102
▁감미	-9103
▁계신	-9104
▁끝내	-9105
▁나네	-9106
▁돈이	-9107
▁되면	-9108
▁레알	-9109
▁맞죠	-9110
▁멀쩡	-9111
▁몽환	-9112
▁밑에	-9113
▁반칙	-9114
▁받을	-9115
▁밤에	-9116
▁보소	-9117
▁분산	-9118
▁비염	-9119
▁살려	-9120
▁살수	-9121
▁새우	-9122
▁생얼	-9123
▁시발	-9124
▁아유	-9125
▁어휴	-9126
▁와닿	-9127
▁이주	-9128
▁인가	-9129
▁임다	-9130
▁장군	-9131
▁지역	-9132
▁짱배	-9133
▁초행	-9134
▁춤도	-9135
▁커튼	-9136
▁킹크	-9137
▁한데	-9138
▁화목	-9139
▁홧팅	-9140
▁효과	-9141
▁훈훈	-9142
▁흘러	-9143
▁힘을	-9144
나보네	-9145
동영상	-9146
보다가	-9147
보세요	-9148
사람은	-9149
사이다	-9150
셨나요	-9151
심으로	-9152
아닌가	-9153
았으면	-9154
오징어	-9155
으려고	-9156
인데도	-9157
지는게	-9158
챌린지	-9159
하영아	-9160
angg	-9161
aran	-9162
ates	-9163
come	-9164
erte	-9165
gggg	-9166
ieun	-9167
ific	-9168
igit	-9169
ping	-9170
sung	-9171
this	-9172
yyyy	-9173
▁Cut	-9174
▁Exo	-9175
▁See	-9176
▁TOD	-9177
▁VOC	-9178
▁YES	-9179
▁cmt	-9180
▁det	-9181
▁fil	-9182
▁mod	-9183
▁ren	-9184
▁zom	-9185
▁결론은	-9186
▁군대에	-9187
▁그렇다	-9188
▁김대석	-9189
▁꽃길만	-9190
▁더블비	-9191
▁두분다	-9192
▁두분이	-9193
▁로지컬	-9194
▁만들고	-9195
▁맞는거	-9196
▁므찌다	-9197
▁분들은	-9198
▁샤우팅	-9199
▁시간을	-9200
▁시트콤	-9201
▁신기해	-9202
▁아니지	-9203
▁아침에	-9204
▁알고있	-9205
▁없지만	-9206
▁영상만	-9207
▁오디오	-9208
▁우리집	-9209
▁이유비	-9210
▁인트로	-9211
▁있어야	-9212
▁있었던	-9213
▁있었음	-9214
▁자라렴	-9215
▁자막이	-9216
▁적당히	-9217
▁정재현	-9218
▁첫번째	-9219
▁초록색	-9220
▁초반에	-9221
▁최선을	-9222
▁친구가	-9223
▁코미디	-9224
▁태풍이	-9225
▁해봐야	-9226
▁해줘요	-9227
▁햄편님	-9228
보이네요	-9229
💕💕💕💕	-9230
ISELL	-9231
alagi	-9232
eness	-9233
label	-9234
▁4:24	-9235
▁BABY	-9236
▁Luna	-9237
▁dest	-9238
▁dide	-9239
▁enam	-9240
▁josh	-9241
▁khóc	-9242
▁lama	-9243
▁less	-9244
▁mana	-9245
▁mask	-9246
▁pink	-9247
▁quer	-9248
▁till	-9249
▁wine	-9250
▁ᄃᄃᄃᄃ	-9251
▁궁금해서	-9252
▁귀염둥이	-9253
▁기대된다	-9254
▁다행이다	-9255
▁당연하지	-9256
▁말하는거	-9257
▁생각보다	-9258
▁신기하네	-9259
▁아니지만	-9260
▁아닙니다	-9261
▁아름다워	-9262
▁운동하는	-9263
▁이거보고	-9264
▁초등학교	-9265
inning	-9266
▁actor	-9267
▁becom	-9268
▁bored	-9269
▁champ	-9270
▁dying	-9271
▁faker	-9272
▁genre	-9273
▁light	-9274
▁lucas	-9275
▁maybe	-9276
▁mucha	-9277
▁puedo	-9278
▁staff	-9279
▁takes	-9280
▁모르겠지만	-9281
▁부럽습니다	-9282
▁재미있어요	-9283
ovember	-9284
▁Mingyu	-9285
▁Winwin	-9286
▁appear	-9287
▁bagian	-9288
▁stress	-9289
▁worked	-9290
▁beneran	-9291
▁blessed	-9292
▁written	-9293
▁youtube	-9294
▁TALENTED	-9295
▁Seriously	-9296
▁semangatt	-9297
▁characters	-9298
▁perfection	-9299
▁themselves	-9300
80	-9301
UK	-9302
YM	-9303
YP	-9304
mr	-9305
ان	-9306
يه	-9307
ắt	-9308
▁л	-9309
▁꽁	-9310
▁낯	-9311
▁넓	-9312
▁댕	-9313
▁땐	-9314
▁똠	-9315
▁멕	-9316
▁즉	-9317
ここ	-9318
감을	-9319
그제	-9320
기전	-9321
나나	-9322
는것	-9323
다리	-9324
다시	-9325
둘이	-9326
럽게	-9327
로는	-9328
만나	-9329
무럭	-9330
무실	-9331
받은	-9332
보러	-9333
보소	-9334
빨리	-9335
시니	-9336
쓰고	-9337
씨랑	-9338
어용	-9339
에여	-9340
완전	-9341
율이	-9342
이길	-9343
이니	-9344
인걸	-9345
일듯	-9346
절로	-9347
정우	-9348
종일	-9349
주가	-9350
주도	-9351
주문	-9352
준빈	-9353
지말	-9354
진짴	-9355
체험	-9356
학년	-9357
🙏🏻	-9358
GGG	-9359
TED	-9360
akt	-9361
bis	-9362
boy	-9363
cok	-9364
ece	-9365
ida	-9366
iga	-9367
ién	-9368
mer	-9369
olo	-9370
ros	-9371
udo	-9372
won	-9373
ích	-9374
ước	-9375
حبك	-9376
▁07	-9377
▁AT	-9378
▁Qu	-9379
▁VS	-9380
▁YA	-9381
▁같고	-9382
▁거를	-9383
▁거리	-9384
▁건가	-9385
▁건데	-9386
▁결말	-9387
▁곡을	-9388
▁공유	-9389
▁관계	-9390
▁관련	-9391
▁교훈	-9392
▁기획	-9393
▁꺼내	-9394
▁나쁘	-9395
▁넘게	-9396
▁넣고	-9397
▁논란	-9398
▁뉴스	-9399
▁다를	-9400
▁단순	-9401
▁닮음	-9402
▁데려	-9403
▁독도	-9404
▁되었	-9405
▁들은	-9406
▁매운	-9407
▁무럭	-9408
▁무릎	-9409
▁밝고	-9410
▁부끄	-9411
▁부자	-9412
▁사과	-9413
▁사물	-9414
▁새로	-9415
▁세탁	-9416
▁송이	-9417
▁승리	-9418
▁싸패	-9419
▁써서	-9420
▁안됐	-9421
▁얘네	-9422
▁어떠	-9423
▁엑소	-9424
▁여신	-9425
▁역쉬	-9426
▁역할	-9427
▁오지	-9428
▁오타	-9429
▁의상	-9430
▁일부	-9431
▁자란	-9432
▁자랐	-9433
▁자살	-9434
▁잔잔	-9435
▁잘맞	-9436
▁제니	-9437
▁종단	-9438
▁좋지	-9439
▁지옥	-9440
▁지인	-9441
▁진급	-9442
▁진실	-9443
▁찢어	-9444
▁책상	-9445
▁첫째	-9446
▁추가	-9447
▁코스	-9448
▁터졌	-9449
▁호텔	-9450
▁후에	-9451
▁💜💜	-9452
냐고요	-9453
다는데	-9454
대에서	-9455
버리는	-9456
봤어요	-9457
시나요	-9458
십니까	-9459
어떻게	-9460
어머니	-9461
웃기다	-9462
컨텐츠	-9463
CHAN	-9464
IGHT	-9465
ONGR	-9466
This	-9467
alan	-9468
down	-9469
ello	-9470
enes	-9471
reen	-9472
rent	-9473
▁Amo	-9474
▁Ber	-9475
▁Con	-9476
▁Hot	-9477
▁Min	-9478
▁SEL	-9479
▁SOO	-9480
▁fem	-9481
▁gas	-9482
▁hig	-9483
▁mov	-9484
▁pop	-9485
▁pur	-9486
▁sắp	-9487
▁thi	-9488
▁vừa	-9489
▁가족이	-9490
▁개이뻐	-9491
▁그리웠	-9492
▁느끼게	-9493
▁동시에	-9494
▁똑같아	-9495
▁몇번을	-9496
▁모니카	-9497
▁반응이	-9498
▁비탈면	-9499
▁사랑에	-9500
▁상상도	-9501
▁세상이	-9502
▁소미가	-9503
▁스쿼트	-9504
▁아니죠	-9505
▁어쩐지	-9506
▁예쁘네	-9507
▁올라온	-9508
▁우연히	-9509
▁인스타	-9510
▁있는게	-9511
▁저분들	-9512
▁조금만	-9513
▁중요한	-9514
▁크레딧	-9515
▁클라스	-9516
▁태어난	-9517
▁페이커	-9518
▁하루에	-9519
▁하이킥	-9520
▁할수있	-9521
하시는거	-9522
aenas	-9523
arget	-9524
board	-9525
fully	-9526
hypen	-9527
ukung	-9528
▁BISA	-9529
▁LAGU	-9530
▁MARK	-9531
▁True	-9532
▁Visu	-9533
▁YANG	-9534
▁deli	-9535
▁essa	-9536
▁esto	-9537
▁idea	-9538
▁muốn	-9539
▁ones	-9540
▁orig	-9541
▁read	-9542
▁남자친구	-9543
▁떠다니는	-9544
▁목소리에	-9545
▁부럽네요	-9546
▁아니라고	-9547
▁아름답고	-9548
넼ᄏᄏᄏᄏ	-9549
??????	-9550
though	-9551
▁ALBUM	-9552
▁PROUD	-9553
▁ahora	-9554
▁benar	-9555
▁camer	-9556
▁cocok	-9557
▁cutee	-9558
▁delic	-9559
▁grand	-9560
▁small	-9561
▁trong	-9562
▁uaena	-9563
▁기원합니다	-9564
▁잘하시네요	-9565
▁최고입니다	-9566
~~~~~~~	-9567
▁AAAAAA	-9568
▁brings	-9569
▁dideng	-9570
▁escuch	-9571
▁romant	-9572
▁semoga	-9573
▁slayed	-9574
▁우즈베키스탄	-9575
ᅮᅮᅮᅮᅮᅮᅮᅮ	-9576
▁YouTube	-9577
▁brother	-9578
▁calming	-9579
▁concert	-9580
▁drawing	-9581
▁explain	-9582
▁instead	-9583
▁menjadi	-9584
▁sentimi	-9585
▁enjoying	-9586
▁happened	-9587
▁jongkook	-9588
▁Saranghae	-9589
▁Semangatt	-9590
▁comebacks	-9591
▁improving	-9592
▁thumbnail	-9593
▁yesterday	-9594
!!!!!!!!!!!!	-9595
!!!!!!!!!!!!!	-9596
HA	-9597
_^	-9598
pi	-9599
va	-9600
~?	-9601
ет	-9602
за	-9603
ᄂᄂ	-9604
ản	-9605
ận	-9606
ột	-9607
▁@	-9608
▁값	-9609
▁깡	-9610
▁줘	-9611
▁짠	-9612
▁🥲	-9613
ック	-9614
거죠	-9615
국민	-9616
귀염	-9617
그림	-9618
깝다	-9619
낄낄	-9620
나여	-9621
낙하	-9622
날이	-9623
너비	-9624
로만	-9625
르면	-9626
린거	-9627
마트	-9628
매력	-9629
명수	-9630
분도	-9631
빼고	-9632
선물	-9633
소절	-9634
써요	-9635
의를	-9636
자고	-9637
지다	-9638
지로	-9639
차선	-9640
차피	-9641
체가	-9642
테나	-9643
통신	-9644
포상	-9645
프피	-9646
해지	-9647
화가	-9648
😀😀	-9649
)))	-9650
OSH	-9651
PEN	-9652
The	-9653
ude	-9654
▁GR	-9655
▁KN	-9656
▁Ph	-9657
▁SP	-9658
▁tố	-9659
▁yo	-9660
▁ка	-9661
▁가야	-9662
▁갔다	-9663
▁같지	-9664
▁거실	-9665
▁고음	-9666
▁기쁘	-9667
▁기엽	-9668
▁넘치	-9669
▁늘어	-9670
▁다정	-9671
▁답답	-9672
▁대표	-9673
▁독보	-9674
▁때도	-9675
▁리뷰	-9676
▁마냥	-9677
▁말에	-9678
▁먹었	-9679
▁먼가	-9680
▁몇년	-9681
▁모음	-9682
▁몰래	-9683
▁몰아	-9684
▁몸에	-9685
▁못해	-9686
▁무너	-9687
▁무언	-9688
▁무지	-9689
▁바보	-9690
▁발전	-9691
▁발표	-9692
▁뱀술	-9693
▁버티	-9694
▁세모	-9695
▁소속	-9696
▁승희	-9697
▁양수	-9698
▁업무	-9699
▁엠넷	-9700
▁영향	-9701
▁오프	-9702
▁와씨	-9703
▁유부	-9704
▁유익	-9705
▁의도	-9706
▁인상	-9707
▁자고	-9708
▁장삐	-9709
▁제대	-9710
▁좋게	-9711
▁주식	-9712
▁주실	-9713
▁직캠	-9714
▁징계	-9715
▁차이	-9716
▁초면	-9717
▁축복	-9718
▁치유	-9719
▁태용	-9720
▁택조	-9721
▁티키	-9722
▁포포	-9723
▁한방	-9724
▁히트	-9725
들어도	-9726
라는게	-9727
셨어요	-9728
식이형	-9729
였구나	-9730
중대장	-9731
티스트	-9732
하느라	-9733
VING	-9734
aper	-9735
tern	-9736
~~!!	-9737
▁ATT	-9738
▁Are	-9739
▁Che	-9740
▁EST	-9741
▁HAS	-9742
▁KAR	-9743
▁Lên	-9744
▁MOO	-9745
▁OUT	-9746
▁SEE	-9747
▁VID	-9748
▁air	-9749
▁chị	-9750
▁dri	-9751
▁hid	-9752
▁mah	-9753
▁ngủ	-9754
▁pad	-9755
▁run	-9756
▁yêu	-9757
▁강진우	-9758
▁것처럼	-9759
▁괜찮아	-9760
▁교수님	-9761
▁그것도	-9762
▁기승전	-9763
▁나라가	-9764
▁나한테	-9765
▁대단해	-9766
▁뒤에서	-9767
▁똑같네	-9768
▁맛있는	-9769
▁먹는거	-9770
▁미쳣다	-9771
▁미친거	-9772
▁부분이	-9773
▁순살만	-9774
▁안하는	-9775
▁알아서	-9776
▁애들은	-9777
▁어디갔	-9778
▁얼굴만	-9779
▁얼굴은	-9780
▁엄마랑	-9781
▁예고편	-9782
▁웃겨욬	-9783
▁위로를	-9784
▁이러다	-9785
▁이정도	-9786
▁있다가	-9787
▁전세계	-9788
▁지진이	-9789
▁찐이다	-9790
▁컴퓨터	-9791
▁컸네요	-9792
▁휴대폰	-9793
❤❤❤❤	-9794
렸습니다	-9795
오오오오	-9796
이였는데	-9797
LABEL	-9798
ahkan	-9799
alent	-9800
asure	-9801
hatan	-9802
ither	-9803
▁1:40	-9804
▁25,9	-9805
▁5:40	-9806
▁ARMY	-9807
▁DUMB	-9808
▁HARD	-9809
▁MOST	-9810
▁Oppa	-9811
▁STOP	-9812
▁VERY	-9813
▁Wait	-9814
▁calm	-9815
▁chưa	-9816
▁diss	-9817
▁doub	-9818
▁gift	-9819
▁gold	-9820
▁imag	-9821
▁kids	-9822
▁kiss	-9823
▁mist	-9824
▁plus	-9825
▁pull	-9826
▁tiếp	-9827
▁개웃기다	-9828
▁개이쁘다	-9829
▁군생활을	-9830
▁귀여운거	-9831
▁귀여워라	-9832
▁나왔는데	-9833
▁너무나도	-9834
▁따뜻하고	-9835
▁떨어지고	-9836
▁똑같아요	-9837
▁명작이다	-9838
▁무한반복	-9839
▁보이네요	-9840
▁보자마자	-9841
▁알고보니	-9842
▁티키타카	-9843
▁팬입니다	-9844
ISELLE	-9845
confir	-9846
illion	-9847
▁Dream	-9848
▁LOOKS	-9849
▁World	-9850
▁among	-9851
▁balik	-9852
▁daugh	-9853
▁karya	-9854
▁lindo	-9855
▁motiv	-9856
▁mwave	-9857
▁neces	-9858
▁quite	-9859
▁ready	-9860
▁tetap	-9861
▁worth	-9862
▁신기하네요	-9863
▁싸이코패스	-9864
▁......	-9865
▁Anyone	-9866
▁BANYAK	-9867
▁Potter	-9868
▁concep	-9869
▁father	-9870
▁hearts	-9871
▁konsep	-9872
▁nostal	-9873
▁target	-9874
▁만들어주세요	-9875
▁Favorit	-9876
▁Opinion	-9877
▁holding	-9878
▁sticker	-9879
▁talento	-9880
▁talents	-9881
▁también	-9882
▁totally	-9883
confirmed	-9884
▁haciendo	-9885
▁realized	-9886
▁BLACKPINK	-9887
▁Literally	-9888
▁konsisten	-9889
▁personality	-9890
-)	-9891
.!	-9892
11	-9893
19	-9894
AU	-9895
TA	-9896
co	-9897
ei	-9898
mi	-9899
oi	-9900
pu	-9901
xy	-9902
ơn	-9903
но	-9904
اا	-9905
لا	-9906
لو	-9907
نا	-9908
▁б	-9909
▁э	-9910
▁ᄆ	-9911
▁ᅵ	-9912
▁냅	-9913
▁봉	-9914
▁셀	-9915
▁습	-9916
▁엊	-9917
▁옴	-9918
▁쯤	-9919
▁켄	-9920
▁협	-9921
▁힙	-9922
▁😄	-9923
デオ	-9924
가도	-9925
같고	-9926
거면	-9927
는걸	-9928
대요	-9929
던가	-9930
던게	-9931
든지	-9932
들레	-9933
랑이	-9934
러스	-9935
레모	-9936
마저	-9937
몰입	-9938
부부	-9939
산책	-9940
살인	-9941
안에	-9942
우우	-9943
으심	-9944
으으	-9945
음악	-9946
인생	-9947
있나	-9948
장은	-9949
저항	-9950
점을	-9951
젤리	-9952
주면	-9953
줌마	-9954
지니	-9955
차이	-9956
치가	-9957
타고	-9958
필요	-9959
히는	-9960
-1)	-9961
ISH	-9962
^^♡	-9963
arr	-9964
gic	-9965
iel	-9966
lah	-9967
now	-9968
ror	-9969
uar	-9970
มาก	-9971
▁UP	-9972
▁mc	-9973
▁ᄋᄋ	-9974
▁개이	-9975
▁것에	-9976
▁나머	-9977
▁날이	-9978
▁너네	-9979
▁놀러	-9980
▁눌렀	-9981
▁달아	-9982
▁대기	-9983
▁도망	-9984
▁들려	-9985
▁마다	-9986
▁미필	-9987
▁바뀐	-9988
▁방탄	-9989
▁배꼽	-9990
▁봐요	-9991
▁사서	-9992
▁상대	-9993
▁세로	-9994
▁슈돌	-9995
▁스엠	-9996
▁쑥쑥	-9997
▁쓰면	-9998
▁아싸	-9999
▁않다	-10000
▁없었	-10001
▁웃게	-10002
▁이쯤	-10003
▁입은	-10004
▁재질	-10005
▁저의	-10006
▁제외	-10007
▁천천	-10008
▁치고	-10009
▁하여	-10010
▁해석	-10011
▁향수	-10012
▁형사	-10013
▁️‍	-10014
▁💗💗	-10015
ここに	-10016
ビデオ	-10017
같은거	-10018
다고요	-10019
먹으면	-10020
속에서	-10021
아니야	-10022
있는게	-10023
하셔서	-10024
?...	-10025
ASIH	-10026
eech	-10027
ital	-10028
jung	-10029
ulan	-10030
~♡♡♡	-10031
▁400	-10032
▁500	-10033
▁AYO	-10034
▁Art	-10035
▁BAD	-10036
▁MAK	-10037
▁MIN	-10038
▁POP	-10039
▁SUB	-10040
▁ama	-10041
▁bro	-10042
▁cái	-10043
▁dog	-10044
▁dun	-10045
▁lie	-10046
▁pat	-10047
▁pig	-10048
▁rac	-10049
▁riv	-10050
▁sit	-10051
▁tra	-10052
▁use	-10053
▁vol	-10054
▁whe	-10055
▁가수가	-10056
▁개쩐다	-10057
▁공부도	-10058
▁귀엽당	-10059
▁그나마	-10060
▁그들의	-10061
▁나보다	-10062
▁나와도	-10063
▁나왔다	-10064
▁놀라운	-10065
▁다양한	-10066
▁다음엔	-10067
▁도경완	-10068
▁들어요	-10069
▁라임향	-10070
▁만나면	-10071
▁민들레	-10072
▁베레모	-10073
▁보라씨	-10074
▁봤네요	-10075
▁비행기	-10076
▁상황이	-10077
▁수많은	-10078
▁실수로	-10079
▁아니네	-10080
▁애초에	-10081
▁없나요	-10082
▁연우도	-10083
▁예뻐서	-10084
▁이노래	-10085
▁제작진	-10086
▁지존파	-10087
▁짱스파	-10088
▁최대한	-10089
▁케이팝	-10090
▁킹크랩	-10091
▁태어나	-10092
▁한번만	-10093
▁합시다	-10094
▁해보자	-10095
▁행복을	-10096
▁행복이	-10097
▁힘든데	-10098
はここに	-10099
메리카노	-10100
사랑해요	-10101
을때마다	-10102
큐ᅲᅲᅲ	-10103
eling	-10104
ently	-10105
ereka	-10106
ility	-10107
ished	-10108
itish	-10109
pared	-10110
rated	-10111
▁1:30	-10112
▁2:22	-10113
▁Does	-10114
▁ENHY	-10115
▁HEND	-10116
▁JONG	-10117
▁Jadi	-10118
▁MAKE	-10119
▁MERE	-10120
▁Pagi	-10121
▁Tapi	-10122
▁free	-10123
▁gila	-10124
▁gitu	-10125
▁hype	-10126
▁jaja	-10127
▁qued	-10128
▁thật	-10129
▁told	-10130
▁그러니까	-10131
▁기승전결	-10132
▁다음에는	-10133
▁닮았어요	-10134
▁라라언니	-10135
▁만들어서	-10136
▁부러워요	-10137
▁사람이다	-10138
▁생각난다	-10139
▁썸넬보고	-10140
▁아나운서	-10141
▁아티스트	-10142
▁여기저기	-10143
▁종단속도	-10144
▁헤이마마	-10145
▁💜💜💜💜	-10146
ONGRAT	-10147
▁cring	-10148
▁estar	-10149
▁exact	-10150
▁fairy	-10151
▁gotta	-10152
▁guess	-10153
▁intro	-10154
▁melod	-10155
▁milit	-10156
▁party	-10157
▁peace	-10158
▁thats	-10159
▁너무좋아요	-10160
▁대대장한테	-10161
▁민쩌미님이	-10162
▁영상보면서	-10163
▁CANTIK	-10164
▁Semoga	-10165
▁bangga	-10166
▁hoping	-10167
▁kangen	-10168
▁lanjut	-10169
▁minggu	-10170
▁pengen	-10171
▁refres	-10172
▁update	-10173
▁weight	-10174
▁wkwkwk	-10175
▁사랑스럽네요	-10176
;;;;;;;;	-10177
illboard	-10178
▁Attacca	-10179
▁bersama	-10180
▁current	-10181
▁dynasty	-10182
▁makasih	-10183
▁putting	-10184
▁quality	-10185
▁tzuyang	-10186
▁comedian	-10187
▁original	-10188
▁personal	-10189
▁reaction	-10190
▁romantic	-10191
▁emotional	-10192
▁perfectly	-10193
▁completely	-10194
▁effortless	-10195
▁ᅲᅲᅲᅲᅲᅲᅲᅲᅲᅲᅲᅲ	-10196
▁international	-10197
AAAAAAAAAAAAAAAA	-10198
''	-10199
(◠	-10200
_<	-10201
jo	-10202
rs	-10203
rí	-10204
xx	-10205
ко	-10206
на	-10207
ре	-10208
ᅥᅥ	-10209
▁ч	-10210
▁➡	-10211
▁겸	-10212
▁귤	-10213
▁낼	-10214
▁뚝	-10215
▁및	-10216
▁붕	-10217
▁쏟	-10218
▁항	-10219
▁👏	-10220
◕)	-10221
新の	-10222
가정	-10223
곳에	-10224
구니	-10225
기억	-10226
길이	-10227
난거	-10228
는가	-10229
달고	-10230
대중	-10231
돼요	-10232
되지	-10233
드려	-10234
땡깡	-10235
리안	-10236
마니	-10237
먹방	-10238
먹은	-10239
명을	-10240
버릴	-10241
병이	-10242
볶음	-10243
수로	-10244
스는	-10245
신분	-10246
실때	-10247
얘기	-10248
어머	-10249
엄청	-10250
왔던	-10251
원은	-10252
이해	-10253
있지	-10254
장에	-10255
적은	-10256
정신	-10257
질러	-10258
쵝오	-10259
파티	-10260
표현	-10261
EEE	-10262
OIN	-10263
SSS	-10264
UGH	-10265
ayo	-10266
bre	-10267
cho	-10268
cle	-10269
eny	-10270
ika	-10271
iko	-10272
ola	-10273
oun	-10274
sec	-10275
str	-10276
ugg	-10277
ved	-10278
ành	-10279
ᅲᅲᅮ	-10280
▁:"	-10281
▁DW	-10282
▁EP	-10283
▁Fe	-10284
▁OH	-10285
▁gk	-10286
▁xD	-10287
▁yt	-10288
▁та	-10289
▁가게	-10290
▁감태	-10291
▁고향	-10292
▁국뽕	-10293
▁금방	-10294
▁긴장	-10295
▁낙법	-10296
▁남아	-10297
▁남의	-10298
▁너모	-10299
▁네이	-10300
▁눌러	-10301
▁당직	-10302
▁대중	-10303
▁돈을	-10304
▁되서	-10305
▁딸이	-10306
▁또박	-10307
▁뜬금	-10308
▁랄랄	-10309
▁리안	-10310
▁목숨	-10311
▁무빙	-10312
▁미숫	-10313
▁민석	-10314
▁발생	-10315
▁백슉	-10316
▁부른	-10317
▁분리	-10318
▁빡빡	-10319
▁사연	-10320
▁살빠	-10321
▁상처	-10322
▁서버	-10323
▁성대	-10324
▁세봉	-10325
▁손목	-10326
▁수비	-10327
▁스케	-10328
▁쌈디	-10329
▁씩씩	-10330
▁아구	-10331
▁아오	-10332
▁안좋	-10333
▁알바	-10334
▁알지	-10335
▁억울	-10336
▁에스	-10337
▁연결	-10338
▁왔네	-10339
▁용돈	-10340
▁유머	-10341
▁유플	-10342
▁육군	-10343
▁이동	-10344
▁인도	-10345
▁입술	-10346
▁저번	-10347
▁제품	-10348
▁젤리	-10349
▁질투	-10350
▁착각	-10351
▁치맥	-10352
▁토크	-10353
▁통해	-10354
▁포근	-10355
▁폭발	-10356
▁허제	-10357
▁🔥🔥	-10358
最新の	-10359
는것도	-10360
마지막	-10361
안하고	-10362
애들은	-10363
유튜브	-10364
큐ᅲᅲ	-10365
하나요	-10366
하던데	-10367
한거야	-10368
했을때	-10369
..."	-10370
GEND	-10371
aily	-10372
akit	-10373
aman	-10374
enas	-10375
enya	-10376
iced	-10377
ined	-10378
olah	-10379
olly	-10380
ᄃᄃᄃᄃ	-10381
▁300	-10382
▁:')	-10383
▁ART	-10384
▁Mọi	-10385
▁TBL	-10386
▁bek	-10387
▁bgm	-10388
▁bng	-10389
▁ela	-10390
▁fit	-10391
▁gag	-10392
▁hic	-10393
▁kec	-10394
▁một	-10395
▁nue	-10396
▁tbh	-10397
▁tuy	-10398
▁uma	-10399
▁개웃곀	-10400
▁군대가	-10401
▁그리워	-10402
▁나왔던	-10403
▁나이에	-10404
▁두번째	-10405
▁뒤집어	-10406
▁때까지	-10407
▁목욕물	-10408
▁미안해	-10409
▁방송을	-10410
▁보다니	-10411
▁보이네	-10412
▁소미님	-10413
▁아내분	-10414
▁아버님	-10415
▁어차피	-10416
▁언니랑	-10417
▁엊그제	-10418
▁오지게	-10419
▁웃기냐	-10420
▁웃긴데	-10421
▁윤모는	-10422
▁좋아할	-10423
▁천천히	-10424
▁최애곡	-10425
▁케미가	-10426
▁하는지	-10427
▁하지마	-10428
▁했지만	-10429
▁🥰🥰🥰	-10430
あります	-10431
이이이이	-10432
💧💧💧💧	-10433
🤣🤣🤣🤣	-10434
ambut	-10435
ement	-10436
hhhhh	-10437
ments	-10438
ostic	-10439
tokyo	-10440
▁Blue	-10441
▁HELP	-10442
▁KOOK	-10443
▁NEXT	-10444
▁PART	-10445
▁VOTE	-10446
▁XIAO	-10447
▁asli	-10448
▁bgtt	-10449
▁gini	-10450
▁incl	-10451
▁note	-10452
▁pack	-10453
▁pain	-10454
▁segu	-10455
▁suit	-10456
▁tran	-10457
▁강호이로	-10458
▁노랭이가	-10459
▁높이에서	-10460
▁느껴진다	-10461
▁대구형님	-10462
▁라이브를	-10463
▁생각하는	-10464
▁신랑신부	-10465
▁아는형님	-10466
▁애기제이	-10467
▁어지러이	-10468
▁영지언니	-10469
▁이번영상	-10470
▁잘생겼다	-10471
▁좋아해서	-10472
▁좋아해요	-10473
▁주제추천	-10474
▁초등학생	-10475
▁하루종일	-10476
▁행복하고	-10477
▁🤣🤣🤣🤣	-10478
私の最新の	-10479
스럽습니다	-10480
elcome	-10481
pected	-10482
▁Hoshi	-10483
▁Hotel	-10484
▁LAUGH	-10485
▁SOMII	-10486
▁Still	-10487
▁Vamos	-10488
▁child	-10489
▁fresh	-10490
▁harry	-10491
▁humor	-10492
▁liked	-10493
▁muito	-10494
▁regre	-10495
▁speak	-10496
▁using	-10497
▁너무귀여워	-10498
▁돈까스형님	-10499
▁들어왔는데	-10500
▁들었습니다	-10501
▁립제이라니	-10502
▁비밀번호가	-10503
▁성윤모같은	-10504
▁풀어주세요	-10505
oration	-10506
▁Mereka	-10507
▁bright	-10508
▁career	-10509
▁celebr	-10510
▁change	-10511
▁creepy	-10512
▁dancer	-10513
▁female	-10514
▁jaemin	-10515
▁orgull	-10516
▁renjun	-10517
▁sarang	-10518
▁seneng	-10519
▁showed	-10520
▁sooooo	-10521
▁teaser	-10522
▁ENHYPEN	-10523
▁HENDERY	-10524
▁Hayoung	-10525
▁Sijeuni	-10526
▁against	-10527
▁company	-10528
▁hardwor	-10529
▁realize	-10530
▁seperti	-10531
▁자랑스러운거야	-10532
はここにあります	-10533
▁daughter	-10534
▁musician	-10535
▁prettier	-10536
▁releases	-10537
▁suaranya	-10538
▁touching	-10539
▁vocalist	-10540
,2	-10541
.?	-10542
BC	-10543
It	-10544
dr	-10545
jt	-10546
ws	-10547
àn	-10548
út	-10549
ри	-10550
ый	-10551
▁у	-10552
▁넥	-10553
▁뻥	-10554
▁쫄	-10555
▁쯔	-10556
▁컵	-10557
▁헛	-10558
▁혀	-10559
▁훅	-10560
▁흉	-10561
ちゃ	-10562
가사	-10563
가에	-10564
겟네	-10565
구독	-10566
그가	-10567
근육	-10568
놈들	-10569
되요	-10570
드시	-10571
듣는	-10572
마냥	-10573
만회	-10574
물어	-10575
므로	-10576
받아	-10577
상한	-10578
스틱	-10579
스팅	-10580
신고	-10581
실력	-10582
씨도	-10583
아무	-10584
아프	-10585
았나	-10586
에만	-10587
오고	-10588
운드	-10589
움을	-10590
유의	-10591
으나	-10592
을지	-10593
이래	-10594
전화	-10595
지에	-10596
진게	-10597
켓몬	-10598
티비	-10599
편은	-10600
할뻔	-10601
했나	-10602
활동	-10603
🌊🌊	-10604
AGI	-10605
ARA	-10606
BER	-10607
OSA	-10608
ash	-10609
els	-10610
gas	-10611
ign	-10612
ior	-10613
mos	-10614
omm	-10615
oos	-10616
ᄏᄏᄀ	-10617
ᅲᅮᅮ	-10618
▁01	-10619
▁04	-10620
▁70	-10621
▁Ag	-10622
▁Co	-10623
▁OK	-10624
▁OR	-10625
▁SA	-10626
▁bỏ	-10627
▁cứ	-10628
▁sẽ	-10629
▁tụ	-10630
▁độ	-10631
▁на	-10632
▁••	-10633
▁가보	-10634
▁간다	-10635
▁갈비	-10636
▁계산	-10637
▁공주	-10638
▁국룰	-10639
▁기사	-10640
▁까먹	-10641
▁깨끗	-10642
▁네오	-10643
▁녹두	-10644
▁놀랬	-10645
▁동그	-10646
▁드러	-10647
▁똘똘	-10648
▁러브	-10649
▁러블	-10650
▁막내	-10651
▁머야	-10652
▁멀리	-10653
▁명품	-10654
▁못할	-10655
▁무기	-10656
▁박사	-10657
▁뱀이	-10658
▁벗겨	-10659
▁보며	-10660
▁보호	-10661
▁본거	-10662
▁볼수	-10663
▁봤다	-10664
▁살기	-10665
▁살면	-10666
▁속에	-10667
▁스카	-10668
▁신박	-10669
▁신입	-10670
▁신호	-10671
▁쓰러	-10672
▁아련	-10673
▁아자	-10674
▁안정	-10675
▁않음	-10676
▁어째	-10677
▁엔조	-10678
▁여유	-10679
▁오직	-10680
▁와파	-10681
▁웃을	-10682
▁의문	-10683
▁이겼	-10684
▁인지	-10685
▁자극	-10686
▁작가	-10687
▁잘지	-10688
▁장르	-10689
▁지어	-10690
▁집안	-10691
▁짱구	-10692
▁찐친	-10693
▁체조	-10694
▁출시	-10695
▁친절	-10696
▁커버	-10697
▁커엽	-10698
▁터짐	-10699
▁트위	-10700
▁펩시	-10701
▁편곡	-10702
▁한심	-10703
▁해라	-10704
▁해볼	-10705
긴하네	-10706
김종국	-10707
다보니	-10708
더군요	-10709
리스트	-10710
분동안	-10711
웠는데	-10712
잘하네	-10713
재밌다	-10714
하신다	-10715
해진다	-10716
했는지	-10717
했다가	-10718
OULD	-10719
ages	-10720
hari	-10721
ises	-10722
nyaa	-10723
ocus	-10724
solo	-10725
stop	-10726
ᄉᄏᄉᄏ	-10727
▁Gym	-10728
▁Hey	-10729
▁JOH	-10730
▁May	-10731
▁Oct	-10732
▁PLS	-10733
▁SAR	-10734
▁SEB	-10735
▁ast	-10736
▁box	-10737
▁cuz	-10738
▁dul	-10739
▁día	-10740
▁hug	-10741
▁mad	-10742
▁nhé	-10743
▁sau	-10744
▁vậy	-10745
▁wal	-10746
▁đây	-10747
▁가라면	-10748
▁가비가	-10749
▁갈아타	-10750
▁경상도	-10751
▁그녀는	-10752
▁그런거	-10753
▁기네스	-10754
▁나올때	-10755
▁나이를	-10756
▁노래만	-10757
▁누구야	-10758
▁느낌을	-10759
▁듣고싶	-10760
▁들려주	-10761
▁떠오르	-10762
▁똑같다	-10763
▁라라님	-10764
▁마음의	-10765
▁많네요	-10766
▁말티즈	-10767
▁말해주	-10768
▁맞나요	-10769
▁멋지게	-10770
▁미스쯔	-10771
▁미치게	-10772
▁박명수	-10773
▁밤이야	-10774
▁보여요	-10775
▁북한이	-10776
▁소미야	-10777
▁수비드	-10778
▁스포츠	-10779
▁아쉽다	-10780
▁안들어	-10781
▁안테나	-10782
▁않았다	-10783
▁알수있	-10784
▁어르신	-10785
▁어쩌면	-10786
▁언니도	-10787
▁없다고	-10788
▁여기가	-10789
▁영화로	-10790
▁유일한	-10791
▁음식을	-10792
▁이대로	-10793
▁이러고	-10794
▁이러면	-10795
▁이사람	-10796
▁인간이	-10797
▁인생을	-10798
▁좋아짐	-10799
▁죽는다	-10800
▁진렬님	-10801
▁쯔양이	-10802
▁처음엔	-10803
▁카구리	-10804
▁컨셉이	-10805
▁필요한	-10806
▁하려고	-10807
▁한다는	-10808
▁한달에	-10809
▁한번씩	-10810
▁해야지	-10811
▁해주고	-10812
▁행복하	-10813
봤습니다	-10814
욬ᄏᄏᄏ	-10815
으시네요	-10816
하고싶다	-10817
하는구나	-10818
하자마자	-10819
허니제이	-10820
🇮🇳🇰🇷	-10821
😍😍😍😍	-10822
ances	-10823
ortun	-10824
unggu	-10825
▁2:28	-10826
▁5:01	-10827
▁KING	-10828
▁More	-10829
▁SING	-10830
▁Take	-10831
▁asmr	-10832
▁bear	-10833
▁biết	-10834
▁dire	-10835
▁huge	-10836
▁ment	-10837
▁post	-10838
▁prev	-10839
▁rece	-10840
▁vlog	-10841
▁đang	-10842
▁ᄅᄋᄏᄏ	-10843
▁감태식이	-10844
▁귀여워용	-10845
▁기다리는	-10846
▁따뜻하게	-10847
▁무럭무럭	-10848
▁무서워서	-10849
▁미숫가루	-10850
▁블랙크림	-10851
▁오늘부터	-10852
▁오랫동안	-10853
▁오마이걸	-10854
▁윤모같은	-10855
▁응원할게	-10856
▁이쁘네요	-10857
▁있겠지만	-10858
▁좋아하고	-10859
▁지은언니	-10860
▁처음이야	-10861
▁️️️️	-10862
욬ᄏᄏᄏᄏ	-10863
oooooo	-10864
▁00:00	-10865
▁<3333	-10866
▁AGAIN	-10867
▁LITER	-10868
▁Seung	-10869
▁THESE	-10870
▁UAENA	-10871
▁awali	-10872
▁belum	-10873
▁class	-10874
▁contr	-10875
▁coraz	-10876
▁daily	-10877
▁desde	-10878
▁didnt	-10879
▁haven	-10880
▁honey	-10881
▁puede	-10882
▁sedih	-10883
▁ᅮᅮᅮᅮᅮ	-10884
▁건강하시고	-10885
▁마지막까지	-10886
▁반호이인데	-10887
▁사람들에게	-10888
▁산악회분들	-10889
▁올려주셔서	-10890
▁재밌었어요	-10891
▁하셨습니다	-10892
???????	-10893
▁Artist	-10894
▁Kenapa	-10895
▁LEGEND	-10896
▁encore	-10897
▁handle	-10898
▁inside	-10899
▁leader	-10900
▁mingyu	-10901
▁strugg	-10902
▁tampan	-10903
▁tranqu	-10904
▁zombie	-10905
istening	-10906
▁CONGRAT	-10907
▁FINALLY	-10908
▁GISELLE	-10909
▁XIAOJUN	-10910
▁emotion	-10911
▁encantó	-10912
▁pertama	-10913
▁present	-10914
▁shotaro	-10915
▁soalnya	-10916
👍👍👍👍👍👍👍👍	-10917
▁acrostic	-10918
▁complete	-10919
▁military	-10920
▁playlist	-10921
▁sleeping	-10922
▁tracking	-10923
▁attention	-10924
▁beginning	-10925
▁ᅲᅲᅲᅲᅲᅲᅲᅲᅲ	-10926
▁refreshing	-10927
귀여워귀여워귀여워귀여워	-10928
".	-10929
GE	-10930
IV	-10931
PL	-10932
ec	-10933
fr	-10934
wa	-10935
êm	-10936
úc	-10937
úp	-10938
ươ	-10939
де	-10940
مي	-10941
ᅵᅵ	-10942
ậm	-10943
ỏi	-10944
ổi	-10945
▁à	-10946
▁س	-10947
▁☺	-10948
▁끔	-10949
▁떼	-10950
▁빚	-10951
▁젖	-10952
▁칠	-10953
▁😌	-10954
가나	-10955
같애	-10956
개로	-10957
거다	-10958
군번	-10959
기괴	-10960
나올	-10961
던지	-10962
동석	-10963
때매	-10964
때문	-10965
랑해	-10966
력도	-10967
문제	-10968
보관	-10969
뿐히	-10970
섭다	-10971
셨다	-10972
스마	-10973
시름	-10974
씨들	-10975
영화	-10976
오네	-10977
오우	-10978
온거	-10979
와요	-10980
을것	-10981
자너	-10982
자막	-10983
저도	-10984
줄은	-10985
초전	-10986
추고	-10987
치료	-10988
컨셉	-10989
통령	-10990
트가	-10991
펀치	-10992
하려	-10993
한잔	-10994
해준	-10995
💛💛	-10996
💞💞	-10997
??!	-10998
IME	-10999
OUT	-11000
TTT	-11001
ape	-11002
ico	-11003
ins	-11004
kat	-11005
lik	-11006
ows	-11007
rrr	-11008
tty	-11009
▁03	-11010
▁06	-11011
▁08	-11012
▁45	-11013
▁BP	-11014
▁DP	-11015
▁Mi	-11016
▁Mv	-11017
▁Of	-11018
▁QU	-11019
▁Sm	-11020
▁Tw	-11021
▁Up	-11022
▁Ye	-11023
▁ai	-11024
▁ji	-11025
▁rn	-11026
▁건물	-11027
▁고딩	-11028
▁괴롭	-11029
▁교양	-11030
▁그대	-11031
▁근무	-11032
▁기특	-11033
▁깊은	-11034
▁깨달	-11035
▁끝날	-11036
▁낄낄	-11037
▁남겨	-11038
▁너랑	-11039
▁녹음	-11040
▁닝이	-11041
▁두려	-11042
▁드뎌	-11043
▁맘이	-11044
▁매직	-11045
▁먹기	-11046
▁메인	-11047
▁모범	-11048
▁못먹	-11049
▁미뇽	-11050
▁민뚜	-11051
▁민주	-11052
▁바다	-11053
▁반호	-11054
▁발라	-11055
▁분장	-11056
▁분홍	-11057
▁불구	-11058
▁불닭	-11059
▁비싸	-11060
▁비싼	-11061
▁비해	-11062
▁선정	-11063
▁설사	-11064
▁순삭	-11065
▁신비	-11066
▁실패	-11067
▁싸발	-11068
▁씹어	-11069
▁아웃	-11070
▁아픈	-11071
▁안먹	-11072
▁여친	-11073
▁영광	-11074
▁예비	-11075
▁오면	-11076
▁온갖	-11077
▁온다	-11078
▁완결	-11079
▁우선	-11080
▁웃참	-11081
▁원리	-11082
▁이날	-11083
▁이등	-11084
▁이쑤	-11085
▁인연	-11086
▁인줄	-11087
▁입꼬	-11088
▁입이	-11089
▁잊지	-11090
▁잘보	-11091
▁존잼	-11092
▁지가	-11093
▁첨에	-11094
▁최소	-11095
▁출전	-11096
▁켄지	-11097
▁쿠키	-11098
▁택시	-11099
▁특별	-11100
▁특집	-11101
▁포함	-11102
▁피디	-11103
▁하드	-11104
▁하얀	-11105
▁학력	-11106
▁형들	-11107
개그맨	-11108
나와서	-11109
네ᄏᄏ	-11110
받아서	-11111
부분이	-11112
선생님	-11113
숟가락	-11114
시간에	-11115
시간전	-11116
시는데	-11117
아니냐	-11118
에서의	-11119
예쁘고	-11120
원에서	-11121
자체가	-11122
주는거	-11123
코로나	-11124
하겠네	-11125
했구나	-11126
👏👏👏	-11127
💕💕💕	-11128
awak	-11129
kali	-11130
oles	-11131
real	-11132
ssss	-11133
ured	-11134
zzzz	-11135
▁FAN	-11136
▁HUM	-11137
▁KER	-11138
▁Mak	-11139
▁Rap	-11140
▁WAS	-11141
▁bun	-11142
▁cos	-11143
▁gan	-11144
▁kcm	-11145
▁keb	-11146
▁lah	-11147
▁opp	-11148
▁pra	-11149
▁qui	-11150
▁sho	-11151
▁suk	-11152
▁ton	-11153
▁tui	-11154
▁wit	-11155
▁강호동	-11156
▁근손실	-11157
▁나온다	-11158
▁놀랍다	-11159
▁닝닝은	-11160
▁다같이	-11161
▁들었던	-11162
▁리니님	-11163
▁먹는게	-11164
▁미사일	-11165
▁보이스	-11166
▁볼게요	-11167
▁볼수있	-11168
▁사는게	-11169
▁살아서	-11170
▁살아야	-11171
▁시간차	-11172
▁신지드	-11173
▁아줌마	-11174
▁안된다	-11175
▁앞에서	-11176
▁어릴적	-11177
▁어이가	-11178
▁연기가	-11179
▁연우는	-11180
▁와진짜	-11181
▁웃다가	-11182
▁유쾌한	-11183
▁유투버	-11184
▁이네요	-11185
▁이뻐라	-11186
▁인생이	-11187
▁임다혜	-11188
▁있는지	-11189
▁있을때	-11190
▁잘자라	-11191
▁정신을	-11192
▁정찬성	-11193
▁조아요	-11194
▁조합은	-11195
▁주호민	-11196
▁참고로	-11197
▁초행길	-11198
▁콘텐츠	-11199
▁평소에	-11200
▁포켓몬	-11201
▁플레이	-11202
▁하시면	-11203
▁형님이	-11204
▁혼자서	-11205
는건가요	-11206
보이는데	-11207
으면서도	-11208
...??	-11209
OTHER	-11210
YOUNG	-11211
aebak	-11212
astic	-11213
ilipp	-11214
iones	-11215
tract	-11216
yoong	-11217
▁4:59	-11218
▁Char	-11219
▁Girl	-11220
▁ICON	-11221
▁KORE	-11222
▁Kpop	-11223
▁LIFE	-11224
▁Much	-11225
▁SHOW	-11226
▁WANT	-11227
▁aaaa	-11228
▁bops	-11229
▁chef	-11230
▁dead	-11231
▁fuck	-11232
▁gain	-11233
▁list	-11234
▁ngel	-11235
▁prog	-11236
▁sell	-11237
▁ting	-11238
▁tudo	-11239
▁wasn	-11240
▁가요대상	-11241
▁감사하고	-11242
▁개귀엽다	-11243
▁공기저항	-11244
▁군생활이	-11245
▁기다릴게	-11246
▁놀랍지도	-11247
▁느껴져서	-11248
▁뚜껑없는	-11249
▁미친듯이	-11250
▁잘어울려	-11251
▁진지하게	-11252
▁크리스틴	-11253
▁했습니다	-11254
▁홍지승님	-11255
▁😂😂😂😂	-11256
AECHAN	-11257
ehatan	-11258
enting	-11259
school	-11260
zennie	-11261
▁Loved	-11262
▁bosan	-11263
▁brill	-11264
▁chaos	-11265
▁chico	-11266
▁event	-11267
▁grown	-11268
▁guyss	-11269
▁lirik	-11270
▁movie	-11271
▁musik	-11272
▁notes	-11273
▁shine	-11274
▁taste	-11275
▁tiemp	-11276
▁weird	-11277
▁립제이님이	-11278
▁모르겠는데	-11279
▁부탁드려요	-11280
▁사라져볼게	-11281
▁썸네일보고	-11282
▁응원할게요	-11283
닼ᄏᄏᄏᄏᄏ	-11284
atching	-11285
▁Nctzen	-11286
▁Subtit	-11287
▁Terima	-11288
▁awards	-11289
▁breath	-11290
▁except	-11291
▁forgot	-11292
▁killed	-11293
▁mirror	-11294
▁mushow	-11295
▁player	-11296
▁proble	-11297
▁proper	-11298
▁rambut	-11299
▁sentir	-11300
▁siento	-11301
▁DOYOUNG	-11302
▁VAMPIRE	-11303
▁apalagi	-11304
▁beautif	-11305
▁bekerja	-11306
▁dressed	-11307
▁feelings	-11308
▁introduc	-11309
▁langsung	-11310
▁tranquil	-11311
▁whatever	-11312
▁주문하셔야합니다	-11313
▁LITERALLY	-11314
▁comedians	-11315
▁transmite	-11316
▁throughout	-11317
▁Terimakasih	-11318
▁simplemente	-11319
13	-11320
33	-11321
MR	-11322
ba	-11323
cy	-11324
ís	-11325
ın	-11326
̥̥	-11327
во	-11328
же	-11329
دي	-11330
ầu	-11331
▁е	-11332
▁я	-11333
▁ه	-11334
▁•	-11335
▁꺅	-11336
▁듀	-11337
▁묶	-11338
▁뺏	-11339
▁찡	-11340
▁틈	-11341
▁펑	-11342
です	-11343
감동	-11344
그럼	-11345
깅이	-11346
났다	-11347
내려	-11348
놓은	-11349
되나	-11350
된거	-11351
둘다	-11352
또박	-11353
랐다	-11354
리도	-11355
모르	-11356
바위	-11357
살아	-11358
소년	-11359
씨는	-11360
아내	-11361
아들	-11362
언제	-11363
에겐	-11364
외로	-11365
운전	-11366
원들	-11367
월드	-11368
으론	-11369
음수	-11370
이의	-11371
인건	-11372
인들	-11373
인의	-11374
있었	-11375
저런	-11376
절미	-11377
정국	-11378
주신	-11379
주지	-11380
준비	-11381
짜오	-11382
터짐	-11383
트를	-11384
회전	-11385
DAH	-11386
HHH	-11387
INA	-11388
NNY	-11389
POP	-11390
ani	-11391
cam	-11392
dle	-11393
ele	-11394
iku	-11395
lly	-11396
oor	-11397
pañ	-11398
rif	-11399
uka	-11400
uli	-11401
uro	-11402
vid	-11403
íde	-11404
ùng	-11405
▁;)	-11406
▁Ah	-11407
▁ED	-11408
▁HO	-11409
▁HW	-11410
▁SC	-11411
▁ki	-11412
▁vì	-11413
▁من	-11414
▁ᄀᄀ	-11415
▁가방	-11416
▁강한	-11417
▁고객	-11418
▁국내	-11419
▁그치	-11420
▁글씨	-11421
▁기도	-11422
▁끔찍	-11423
▁나누	-11424
▁높아	-11425
▁눈덮	-11426
▁눈썹	-11427
▁님이	-11428
▁단어	-11429
▁도영	-11430
▁도와	-11431
▁돼요	-11432
▁드는	-11433
▁리정	-11434
▁리팩	-11435
▁만기	-11436
▁매니	-11437
▁매드	-11438
▁메뉴	-11439
▁멘탈	-11440
▁명언	-11441
▁바쁘	-11442
▁배울	-11443
▁배워	-11444
▁병호	-11445
▁보낸	-11446
▁불렀	-11447
▁브라	-11448
▁빠니	-11449
▁빠지	-11450
▁뿌리	-11451
▁색깔	-11452
▁섬세	-11453
▁성숙	-11454
▁소녀	-11455
▁소식	-11456
▁손절	-11457
▁스키	-11458
▁스테	-11459
▁시속	-11460
▁심심	-11461
▁아끼	-11462
▁안남	-11463
▁얘는	-11464
▁어서	-11465
▁오해	-11466
▁와아	-11467
▁왤캐	-11468
▁이긴	-11469
▁이다	-11470
▁이랬	-11471
▁입장	-11472
▁잊을	-11473
▁자는	-11474
▁적이	-11475
▁정지	-11476
▁조만	-11477
▁좋겠	-11478
▁죽지	-11479
▁즐겨	-11480
▁진정	-11481
▁징짱	-11482
▁참가	-11483
▁쳐다	-11484
▁추는	-11485
▁캐미	-11486
▁터지	-11487
▁판타	-11488
▁팬이	-11489
▁하필	-11490
▁한잔	-11491
▁해봐	-11492
▁했지	-11493
▁행운	-11494
▁혼란	-11495
▁희생	-11496
귀여운	-11497
기괴괴	-11498
끝까지	-11499
다는건	-11500
리면서	-11501
메이커	-11502
모습이	-11503
방에서	-11504
버렸네	-11505
버렸다	-11506
비디오	-11507
세븐틴	-11508
어머님	-11509
에게도	-11510
에다가	-11511
왕뚜껑	-11512
욬ᄏᄏ	-11513
이러스	-11514
저렇게	-11515
주시는	-11516
하구나	-11517
해줘요	-11518
ANDS	-11519
JEUN	-11520
Kook	-11521
aged	-11522
aktu	-11523
arin	-11524
arta	-11525
eral	-11526
ices	-11527
ihat	-11528
ilac	-11529
iste	-11530
land	-11531
ries	-11532
▁ADD	-11533
▁BER	-11534
▁CRY	-11535
▁DWG	-11536
▁Leg	-11537
▁Nam	-11538
▁Por	-11539
▁WHO	-11540
▁Yoo	-11541
▁Yuk	-11542
▁ant	-11543
▁aqu	-11544
▁bat	-11545
▁bis	-11546
▁bus	-11547
▁bún	-11548
▁chỉ	-11549
▁die	-11550
▁nản	-11551
▁paz	-11552
▁soy	-11553
▁spo	-11554
▁sup	-11555
▁tto	-11556
▁tur	-11557
▁uri	-11558
▁đâu	-11559
▁가수는	-11560
▁건강한	-11561
▁걸그룹	-11562
▁과몰입	-11563
▁군대를	-11564
▁그것을	-11565
▁녹두전	-11566
▁다르다	-11567
▁닮았네	-11568
▁듣다가	-11569
▁똑똑해	-11570
▁마이너	-11571
▁만나자	-11572
▁먹어야	-11573
▁보기좋	-11574
▁빠르게	-11575
▁빵터짐	-11576
▁사무실	-11577
▁사뿐히	-11578
▁새벽에	-11579
▁숟가락	-11580
▁시청률	-11581
▁신병을	-11582
▁아이들	-11583
▁아프지	-11584
▁알았어	-11585
▁앞머리	-11586
▁어느새	-11587
▁여기에	-11588
▁영어도	-11589
▁영화를	-11590
▁온라인	-11591
▁왔어요	-11592
▁웃고있	-11593
▁원하는	-11594
▁유부남	-11595
▁유애나	-11596
▁유영철	-11597
▁이것만	-11598
▁이루렴	-11599
▁일본에	-11600
▁일요일	-11601
▁일이야	-11602
▁잇섭님	-11603
▁자신이	-11604
▁잘했다	-11605
▁좋은거	-11606
▁주시는	-11607
▁줄이야	-11608
▁중학생	-11609
▁지리네	-11610
▁짱이다	-11611
▁챌린지	-11612
▁첫소절	-11613
▁터져서	-11614
▁포포님	-11615
▁퐁퐁단	-11616
▁하늘을	-11617
▁하다니	-11618
▁하시고	-11619
▁한국의	-11620
▁한사람	-11621
▁💜💜💜	-11622
졌습니다	-11623
지마세요	-11624
하셨어요	-11625
하시나요	-11626
-----	-11627
aling	-11628
henji	-11629
ision	-11630
omong	-11631
thank	-11632
~~~^^	-11633
ᄀᄏᄏᄏᄏ	-11634
▁1:27	-11635
▁1:36	-11636
▁5:25	-11637
▁ASMR	-11638
▁COUP	-11639
▁Cant	-11640
▁Here	-11641
▁KNOW	-11642
▁LUPA	-11643
▁Then	-11644
▁Will	-11645
▁awal	-11646
▁beng	-11647
▁bigg	-11648
▁clip	-11649
▁core	-11650
▁curi	-11651
▁died	-11652
▁foll	-11653
▁grup	-11654
▁hang	-11655
▁lots	-11656
▁mari	-11657
▁nyaa	-11658
▁poor	-11659
▁prim	-11660
▁sáng	-11661
▁trip	-11662
▁unex	-11663
▁♡♡♡♡	-11664
▁감동이다	-11665
▁고등학교	-11666
▁기네스북	-11667
▁김계란이	-11668
▁김종국은	-11669
▁나레이션	-11670
▁느껴져요	-11671
▁느껴지는	-11672
▁똑같아서	-11673
▁마지막화	-11674
▁말하는게	-11675
▁맛있는데	-11676
▁모습으로	-11677
▁무서워요	-11678
▁미쳤나봐	-11679
▁백현이를	-11680
▁벌써부터	-11681
▁아무렇지	-11682
▁어느정도	-11683
▁어디까지	-11684
▁어떻게든	-11685
▁언제봐도	-11686
▁업계포상	-11687
▁은은하게	-11688
▁이야기는	-11689
▁잘생겼어	-11690
▁잘하는데	-11691
▁중국했다	-11692
▁중대장은	-11693
▁하영이도	-11694
ending	-11695
▁Hello	-11696
▁India	-11697
▁Those	-11698
▁akhir	-11699
▁amaze	-11700
▁click	-11701
▁crush	-11702
▁decep	-11703
▁focus	-11704
▁gatau	-11705
▁haces	-11706
▁leave	-11707
▁lihat	-11708
▁magic	-11709
▁natur	-11710
▁posit	-11711
▁rival	-11712
▁round	-11713
▁total	-11714
▁treat	-11715
▁unnie	-11716
▁usual	-11717
▁visit	-11718
▁white	-11719
▁기다렸어요	-11720
▁대단합니다	-11721
▁디도스공격	-11722
▁떨어지면서	-11723
▁목소리에서	-11724
▁보겠습니다	-11725
▁보기만해도	-11726
▁보았습니다	-11727
▁아메리카노	-11728
▁알았습니다	-11729
▁잘어울리는	-11730
▁행복했으면	-11731
▁ICONIC	-11732
▁JOHNNY	-11733
▁THANKS	-11734
▁anyway	-11735
▁boring	-11736
▁compos	-11737
▁dislik	-11738
▁inlove	-11739
▁laughs	-11740
▁mubeat	-11741
▁random	-11742
▁regret	-11743
▁sempre	-11744
▁wouldn	-11745
eechless	-11746
▁ANOTHER	-11747
▁Looking	-11748
▁attract	-11749
▁bahagia	-11750
▁berkali	-11751
▁knowing	-11752
▁mejores	-11753
▁mendeng	-11754
▁musical	-11755
▁noticed	-11756
▁seconds	-11757
▁sendiri	-11758
▁slaying	-11759
ilippines	-11760
▁........	-11761
▁blessing	-11762
▁greatest	-11763
▁hwaiting	-11764
▁maravill	-11765
▁pokoknya	-11766
▁prettiest	-11767
.<	-11768
:'	-11769
DY	-11770
EO	-11771
PR	-11772
~"	-11773
án	-11774
̆̎	-11775
̐̈	-11776
ва	-11777
он	-11778
ᄉᄇ	-11779
▁¡	-11780
▁ç	-11781
▁◡	-11782
▁닦	-11783
▁닿	-11784
▁맑	-11785
▁뵙	-11786
▁샀	-11787
▁솜	-11788
▁씁	-11789
▁얍	-11790
▁엌	-11791
▁쥰	-11792
▁춰	-11793
▁휩	-11794
▁🎃	-11795
▁😢	-11796
▁🤧	-11797
った	-11798
ード	-11799
可愛	-11800
개가	-11801
거운	-11802
겹다	-11803
고마	-11804
고생	-11805
그만	-11806
꿀잼	-11807
나다	-11808
년째	-11809
능력	-11810
데요	-11811
두분	-11812
리나	-11813
리다	-11814
리아	-11815
마나	-11816
망이	-11817
문화	-11818
보샤	-11819
부심	-11820
불러	-11821
비슷	-11822
뽀짝	-11823
세대	-11824
스밍	-11825
아악	-11826
어린	-11827
어스	-11828
유아	-11829
이며	-11830
이서	-11831
일차	-11832
있을	-11833
잔치	-11834
재밋	-11835
정에	-11836
정은	-11837
존예	-11838
주네	-11839
준희	-11840
중대	-11841
중인	-11842
지진	-11843
책임	-11844
처리	-11845
큐ᅲ	-11846
크크	-11847
하긴	-11848
하노	-11849
한듯	-11850
한줄	-11851
해볼	-11852
후에	-11853
힘들	-11854
..(	-11855
ADA	-11856
ASA	-11857
ASS	-11858
IES	-11859
IEW	-11860
III	-11861
ITY	-11862
MIN	-11863
OSS	-11864
ULL	-11865
VEN	-11866
acy	-11867
anh	-11868
has	-11869
hha	-11870
ily	-11871
ips	-11872
lle	-11873
orn	-11874
pan	-11875
ply	-11876
sta	-11877
yaa	-11878
yum	-11879
ọng	-11880
▁AH	-11881
▁EL	-11882
▁Hy	-11883
▁fa	-11884
▁ka	-11885
▁sy	-11886
▁ăn	-11887
▁가위	-11888
▁거죠	-11889
▁거침	-11890
▁고우	-11891
▁곽님	-11892
▁국종	-11893
▁극락	-11894
▁금지	-11895
▁기계	-11896
▁나두	-11897
▁누굴	-11898
▁마주	-11899
▁맥주	-11900
▁머릿	-11901
▁무리	-11902
▁문자	-11903
▁뭐죠	-11904
▁배운	-11905
▁보임	-11906
▁보직	-11907
▁보필	-11908
▁볼때	-11909
▁봐라	-11910
▁비석	-11911
▁비트	-11912
▁빠진	-11913
▁빠질	-11914
▁선한	-11915
▁수직	-11916
▁스피	-11917
▁슬픈	-11918
▁시도	-11919
▁아씨	-11920
▁아조	-11921
▁악플	-11922
▁어떨	-11923
▁언냐	-11924
▁에구	-11925
▁왜냐	-11926
▁원조	-11927
▁위치	-11928
▁이병	-11929
▁이슬	-11930
▁임신	-11931
▁있으	-11932
▁잘자	-11933
▁장애	-11934
▁전자	-11935
▁준희	-11936
▁지들	-11937
▁지혜	-11938
▁지효	-11939
▁짧고	-11940
▁찌르	-11941
▁청순	-11942
▁체험	-11943
▁축구	-11944
▁치명	-11945
▁큰일	-11946
▁태연	-11947
▁톤이	-11948
▁파이	-11949
▁한결	-11950
▁환영	-11951
▁후배	-11952
▁흔한	-11953
▁힘드	-11954
▁💚💚	-11955
거예요	-11956
것처럼	-11957
겠군요	-11958
넼ᄏᄏ	-11959
는거랑	-11960
실에서	-11961
애들이	-11962
였어요	-11963
잘한다	-11964
지마라	-11965
하라고	-11966
한테는	-11967
할께요	-11968
할수가	-11969
할수있	-11970
해져서	-11971
😘😘😘	-11972
REAT	-11973
SOMI	-11974
ULAR	-11975
abaj	-11976
ames	-11977
apun	-11978
ared	-11979
aron	-11980
bali	-11981
ches	-11982
ecew	-11983
erin	-11984
esss	-11985
ikir	-11986
itos	-11987
lect	-11988
nect	-11989
osen	-11990
view	-11991
▁ANY	-11992
▁Cha	-11993
▁Còn	-11994
▁ITS	-11995
▁JYP	-11996
▁MEM	-11997
▁SNS	-11998
▁TOO	-11999
▁WAY	-12000
▁aut	-12001
▁esf	-12002
▁fab	-12003
▁fly	-12004
▁hơn	-12005
▁jud	-12006
▁pot	-12007
▁ras	-12008
▁sns	-12009
▁tah	-12010
▁tun	-12011
▁بيك	-12012
▁갑시다	-12013
▁같기도	-12014
▁것이라	-12015
▁과기부	-12016
▁귀여웠	-12017
▁기대해	-12018
▁꿈에서	-12019
▁나라를	-12020
▁나온거	-12021
▁넘어서	-12022
▁넣으면	-12023
▁능력자	-12024
▁다른데	-12025
▁단순히	-12026
▁대해서	-12027
▁돌아온	-12028
▁되어서	-12029
▁될까요	-12030
▁들어본	-12031
▁땡깡이	-12032
▁말할때	-12033
▁몰라도	-12034
▁못해서	-12035
▁미쳤나	-12036
▁민정이	-12037
▁바르게	-12038
▁보니깐	-12039
▁보이고	-12040
▁사실을	-12041
▁사회에	-12042
▁삼대장	-12043
▁상윤님	-12044
▁생겼다	-12045
▁소리지	-12046
▁술냄새	-12047
▁쉐프님	-12048
▁시스템	-12049
▁아니였	-12050
▁안되나	-12051
▁않아요	-12052
▁어머나	-12053
▁없는게	-12054
▁연기자	-12055
▁예능도	-12056
▁오신날	-12057
▁오프닝	-12058
▁우유에	-12059
▁울언니	-12060
▁이름도	-12061
▁이분은	-12062
▁이쑤시	-12063
▁이제야	-12064
▁인프피	-12065
▁주변에	-12066
▁취요남	-12067
▁캐스팅	-12068
▁클수록	-12069
▁탱구형	-12070
▁하나씩	-12071
▁하루가	-12072
▁햄편이	-12073
▁희망을	-12074
▁힘들다	-12075
너무좋아	-12076
아닌가요	-12077
웠습니다	-12078
있었는데	-12079
OOOOO	-12080
henti	-12081
iming	-12082
opiko	-12083
orror	-12084
tails	-12085
umpah	-12086
wards	-12087
while	-12088
▁0:54	-12089
▁Khan	-12090
▁Swan	-12091
▁ahhh	-12092
▁aren	-12093
▁chậm	-12094
▁emoc	-12095
▁hung	-12096
▁late	-12097
▁pant	-12098
▁pray	-12099
▁reve	-12100
▁sihh	-12101
▁vill	-12102
▁víde	-12103
▁기기괴괴	-12104
▁김상훈이	-12105
▁넷플릭스	-12106
▁디도스가	-12107
▁떨어진다	-12108
▁또박또박	-12109
▁리액션이	-12110
▁매일매일	-12111
▁머리부터	-12112
▁부모님이	-12113
▁살아있는	-12114
▁생각나서	-12115
▁어머니가	-12116
▁어쩔거야	-12117
▁완벽하게	-12118
▁왔습니다	-12119
▁유튜브에	-12120
▁이번노래	-12121
▁잘생기고	-12122
▁좋았어요	-12123
▁중대장도	-12124
▁진짜진짜	-12125
▁하루하루	-12126
▁한국사람	-12127
▁할아버지	-12128
▁행복하길	-12129
닼ᄏᄏᄏᄏ	-12130
이였습니다	-12131
aaaaaa	-12132
angkan	-12133
lowing	-12134
ᅮᅮᅮᅮᅮᅮ	-12135
▁17:48	-12136
▁HUMAN	-12137
▁Super	-12138
▁THEIR	-12139
▁anjir	-12140
▁blink	-12141
▁candy	-12142
▁chúng	-12143
▁cried	-12144
▁doubt	-12145
▁fight	-12146
▁incrí	-12147
▁indah	-12148
▁ingin	-12149
▁tuyệt	-12150
▁works	-12151
▁worry	-12152
▁write	-12153
▁wrote	-12154
▁youuu	-12155
▁궁금하네요	-12156
▁말도잘하고	-12157
▁사랑한다는	-12158
▁아저씨들이	-12159
▁유튜브에서	-12160
▁CONTIN	-12161
▁COUPLE	-12162
▁HAHAHA	-12163
▁Honest	-12164
▁Legend	-12165
▁Lovely	-12166
▁SARANG	-12167
▁Sebong	-12168
▁Singer	-12169
▁amount	-12170
▁bareng	-12171
▁berakt	-12172
▁chicos	-12173
▁compet	-12174
▁cuando	-12175
▁dreamy	-12176
▁includ	-12177
▁racist	-12178
▁tiempo	-12179
▁잘보고갑니다	-12180
욬ᄏᄏᄏᄏᄏᄏ	-12181
▁Because	-12182
▁DESERVE	-12183
▁HAECHAN	-12184
▁SOLOIST	-12185
▁clearly	-12186
▁comedic	-12187
▁exactly	-12188
▁growing	-12189
▁sekolah	-12190
▁serious	-12191
▁응원하겠습니다	-12192
ᅲᅲᅲᅲᅲᅲᅲᅲᅲ	-12193
▁November	-12194
▁berhenti	-12195
▁recogniz	-12196
▁stanning	-12197
▁Listening	-12198
▁kesehatan	-12199
▁orgullosa	-12200
▁satisfying	-12201
▁thoughtful	-12202
▁comfortable	-12203
▁effortlessly	-12204
1.	-12205
AJ	-12206
DU	-12207
KT	-12208
Xo	-12209
jV	-12210
of	-12211
pt	-12212
rd	-12213
tf	-12214
ки	-12215
се	-12216
ша	-12217
ات	-12218
لي	-12219
ᄀᄂ	-12220
ền	-12221
▁¿	-12222
▁ş	-12223
▁곰	-12224
▁끓	-12225
▁댓	-12226
▁락	-12227
▁앤	-12228
▁윗	-12229
▁젓	-12230
▁쥐	-12231
▁탐	-12232
▁튕	-12233
▁팁	-12234
▁펴	-12235
▁혁	-12236
▁힝	-12237
▁💀	-12238
▁😀	-12239
▁😳	-12240
しい	-12241
갈때	-12242
거가	-12243
광고	-12244
구먼	-12245
구여	-12246
까진	-12247
나니	-12248
는대	-12249
는줄	-12250
단다	-12251
든데	-12252
럽고	-12253
렸네	-12254
렸어	-12255
르르	-12256
르륵	-12257
만뷰	-12258
맞다	-12259
무서	-12260
뮤직	-12261
미니	-12262
미쳐	-12263
봤다	-12264
부대	-12265
사리	-12266
산다	-12267
살에	-12268
새요	-12269
색이	-12270
서야	-12271
석진	-12272
성의	-12273
셨던	-12274
수거	-12275
습니	-12276
신가	-12277
았을	-12278
어라	-12279
어쩜	-12280
에다	-12281
였나	-12282
였지	-12283
예쁜	-12284
으시	-12285
은게	-12286
을땐	-12287
응원	-12288
이긴	-12289
이를	-12290
이에	-12291
장애	-12292
저리	-12293
조작	-12294
졸귀	-12295
치게	-12296
치기	-12297
타민	-12298
핑크	-12299
호감	-12300
🤍🤍	-12301
🥺❤	-12302
🧡🧡	-12303
$◕)	-12304
200	-12305
AME	-12306
EEN	-12307
INE	-12308
NCT	-12309
VEL	-12310
ero	-12311
ify	-12312
inh	-12313
jer	-12314
let	-12315
mas	-12316
ren	-12317
ton	-12318
~~!	-12319
есн	-12320
▁''	-12321
▁55	-12322
▁Kh	-12323
▁NY	-12324
▁bị	-12325
▁nè	-12326
▁ri	-12327
▁tá	-12328
▁va	-12329
▁за	-12330
▁가격	-12331
▁가발	-12332
▁갈구	-12333
▁감당	-12334
▁감독	-12335
▁결정	-12336
▁공중	-12337
▁기름	-12338
▁기준	-12339
▁꽁트	-12340
▁꿀떡	-12341
▁끝이	-12342
▁내면	-12343
▁냄새	-12344
▁넘사	-12345
▁넘쳐	-12346
▁놓고	-12347
▁던져	-12348
▁됐네	-12349
▁똠양	-12350
▁많았	-12351
▁많음	-12352
▁맞음	-12353
▁맞지	-12354
▁몇명	-12355
▁못보	-12356
▁뭐고	-12357
▁민정	-12358
▁바쁜	-12359
▁밝혀	-12360
▁번역	-12361
▁벌어	-12362
▁보네	-12363
▁보답	-12364
▁본것	-12365
▁봤네	-12366
▁비록	-12367
▁빡친	-12368
▁사골	-12369
▁서운	-12370
▁손이	-12371
▁스티	-12372
▁승우	-12373
▁안해	-12374
▁알콜	-12375
▁엉엉	-12376
▁연쇄	-12377
▁오고	-12378
▁오르	-12379
▁왜캐	-12380
▁울고	-12381
▁원터	-12382
▁유행	-12383
▁이빨	-12384
▁잃어	-12385
▁잘들	-12386
▁잡고	-12387
▁전달	-12388
▁줘서	-12389
▁지원	-12390
▁짜장	-12391
▁쨔쨔	-12392
▁찐텐	-12393
▁초단	-12394
▁쵝오	-12395
▁치원	-12396
▁코디	-12397
▁크고	-12398
▁키워	-12399
▁터져	-12400
▁텐데	-12401
▁퇴근	-12402
▁특징	-12403
▁파워	-12404
▁퍼포	-12405
▁하며	-12406
▁한두	-12407
▁한문	-12408
▁할듯	-12409
▁해줄	-12410
▁했어	-12411
▁했음	-12412
▁허리	-12413
▁형제	-12414
▁확증	-12415
▁후반	-12416
가는데	-12417
겠다는	-12418
귀요미	-12419
덕분에	-12420
라는거	-12421
라이브	-12422
만들어	-12423
몬스터	-12424
보이는	-12425
셨군요	-12426
시간이	-12427
아니면	-12428
없는데	-12429
었던거	-12430
오르는	-12431
왔어요	-12432
을때도	-12433
이야기	-12434
이었네	-12435
전부터	-12436
쳤는데	-12437
하기도	-12438
하시면	-12439
한다면	-12440
해봐야	-12441
💖💖💖	-12442
$◕)♪	-12443
...(	-12444
AKER	-12445
EVER	-12446
LICK	-12447
ONNA	-12448
aish	-12449
ange	-12450
back	-12451
case	-12452
iant	-12453
imes	-12454
ober	-12455
ther	-12456
umah	-12457
vert	-12458
▁Fan	-12459
▁GYM	-12460
▁INS	-12461
▁PAK	-12462
▁Pre	-12463
▁SER	-12464
▁Tre	-12465
▁WON	-12466
▁así	-12467
▁coz	-12468
▁def	-12469
▁dir	-12470
▁dua	-12471
▁han	-12472
▁hey	-12473
▁hom	-12474
▁hát	-12475
▁ice	-12476
▁met	-12477
▁meu	-12478
▁muk	-12479
▁nay	-12480
▁ngl	-12481
▁pak	-12482
▁plz	-12483
▁ret	-12484
▁roo	-12485
▁ste	-12486
▁xem	-12487
▁انت	-12488
▁صوت	-12489
▁값없이	-12490
▁개킹받	-12491
▁건가요	-12492
▁것보다	-12493
▁그러나	-12494
▁나머지	-12495
▁남자는	-12496
▁누군가	-12497
▁누군지	-12498
▁누르고	-12499
▁눈물나	-12500
▁닮았어	-12501
▁대놓고	-12502
▁댓글이	-12503
▁때부터	-12504
▁말무덤	-12505
▁말이야	-12506
▁말하면	-12507
▁맞는데	-12508
▁매력적	-12509
▁바닥에	-12510
▁바래요	-12511
▁밤하늘	-12512
▁배우님	-12513
▁보는중	-12514
▁보려고	-12515
▁삐쭈형	-12516
▁사물궁	-12517
▁사이에	-12518
▁숫사돈	-12519
▁슬프다	-12520
▁아무튼	-12521
▁안돼서	-12522
▁않네요	-12523
▁어몽씨	-12524
▁엉덩이	-12525
▁에리들	-12526
▁여자는	-12527
▁연기력	-12528
▁영상의	-12529
▁온몸에	-12530
▁우리에	-12531
▁우즈백	-12532
▁유아가	-12533
▁이거는	-12534
▁이국민	-12535
▁인성이	-12536
▁일본인	-12537
▁있었어	-12538
▁장면이	-12539
▁장삐주	-12540
▁저희집	-12541
▁제발요	-12542
▁조만간	-12543
▁주시기	-12544
▁중에서	-12545
▁진짜루	-12546
▁코코아	-12547
▁터졌네	-12548
▁하나만	-12549
▁하셔야	-12550
▁한편의	-12551
▁형사님	-12552
사람들이	-12553
하면서도	-12554
...!!	-12555
AHAHA	-12556
arats	-12557
arkan	-12558
ellig	-12559
iiiii	-12560
iliar	-12561
umble	-12562
~~!!!	-12563
▁0:33	-12564
▁5:04	-12565
▁5:24	-12566
▁CHEN	-12567
▁HERM	-12568
▁HOLD	-12569
▁Lmao	-12570
▁MOON	-12571
▁VIEW	-12572
▁Well	-12573
▁atas	-12574
▁cold	-12575
▁cook	-12576
▁ends	-12577
▁epic	-12578
▁jaga	-12579
▁kami	-12580
▁lleg	-12581
▁loud	-12582
▁mais	-12583
▁near	-12584
▁roll	-12585
▁sexy	-12586
▁sick	-12587
▁skin	-12588
▁wayv	-12589
▁yall	-12590
▁yeah	-12591
▁같은데요	-12592
▁걷고싶다	-12593
▁고등학생	-12594
▁괜찮아요	-12595
▁기다렸어	-12596
▁김종국씨	-12597
▁나오다니	-12598
▁노래부를	-12599
▁누구보다	-12600
▁느낌이다	-12601
▁다시한번	-12602
▁대단하네	-12603
▁떨어질때	-12604
▁먹었는데	-12605
▁미치겠네	-12606
▁백현이는	-12607
▁부활하신	-12608
▁분리수거	-12609
▁비슷해서	-12610
▁사람에게	-12611
▁생각나는	-12612
▁성윤모는	-12613
▁소름돋아	-12614
▁시인하고	-12615
▁시작부터	-12616
▁신기하고	-12617
▁아닐까요	-12618
▁아무래도	-12619
▁여러분들	-12620
▁예쁘네요	-12621
▁유쾌하고	-12622
▁육성으로	-12623
▁음료먼저	-12624
▁이거잖아	-12625
▁이렇게나	-12626
▁있다는게	-12627
▁자유낙하	-12628
▁장난아니	-12629
▁저정도면	-12630
▁조회수가	-12631
▁좋아하네	-12632
▁죽으시고	-12633
▁카리스마	-12634
▁코미디언	-12635
▁트레이너	-12636
▁했었는데	-12637
보고싶어요	-12638
사랑합니다	-12639
(◠$◕)♪	-12640
alling	-12641
apoint	-12642
erence	-12643
illing	-12644
incess	-12645
▁ABOUT	-12646
▁First	-12647
▁LAGUN	-12648
▁anime	-12649
▁buena	-12650
▁dingo	-12651
▁drink	-12652
▁dulce	-12653
▁gemes	-12654
▁gusta	-12655
▁hurts	-12656
▁hwasa	-12657
▁inget	-12658
▁muchh	-12659
▁piece	-12660
▁siapa	-12661
▁somii	-12662
▁waktu	-12663
▁walau	-12664
▁worst	-12665
▁고양이산책	-12666
▁궁금합니다	-12667
▁기대할게요	-12668
▁대박이네요	-12669
▁뮤직비디오	-12670
▁보내심으로	-12671
▁아프지말고	-12672
▁있었습니다	-12673
▁자랑스러워	-12674
▁종국이형님	-12675
▁좋아했는데	-12676
▁죄송합니다	-12677
▁힘들었는데	-12678
aishite	-12679
iderman	-12680
▁MEREKA	-12681
▁SIJEUN	-12682
▁Sumpah	-12683
▁TALENT	-12684
▁bengek	-12685
▁choose	-12686
▁editor	-12687
▁either	-12688
▁espero	-12689
▁horror	-12690
▁inspir	-12691
▁minute	-12692
▁pulang	-12693
▁repres	-12694
▁screen	-12695
▁trabaj	-12696
▁unreal	-12697
▁CARATDE	-12698
▁POPULAR	-12699
▁VISUALS	-12700
▁Waiting	-12701
▁artista	-12702
▁dancers	-12703
▁glowing	-12704
▁melihat	-12705
▁package	-12706
▁produce	-12707
▁promote	-12708
▁sebagus	-12709
▁semakin	-12710
▁확증하셨습니다	-12711
▁EVERYONE	-12712
▁Honestly	-12713
▁apoyando	-12714
▁congrats	-12715
▁intellig	-12716
▁lovesick	-12717
▁luckiest	-12718
▁mencinta	-12719
▁perfecta	-12720
▁relaxing	-12721
strawberry	-12722
▁Caratdeul	-12723
▁decepcion	-12724
▁delicious	-12725
▁favorites	-12726
▁important	-12727
▁mentioned	-12728
▁comforting	-12729
▁friendship	-12730
▁production	-12731
▁unexpected	-12732
▁collaboration	-12733
.5	-12734
50	-12735
AW	-12736
GI	-12737
IP	-12738
Pz	-12739
eh	-12740
je	-12741
lu	-12742
sc	-12743
ás	-12744
бо	-12745
си	-12746
ст	-12747
юб	-12748
كك	-12749
له	-12750
يف	-12751
ᄆᄂ	-12752
ᅳᅲ	-12753
▁ᄇ	-12754
▁ᅩ	-12755
▁갠	-12756
▁냥	-12757
▁뜯	-12758
▁띄	-12759
▁롱	-12760
▁를	-12761
▁벨	-12762
▁빅	-12763
▁쌀	-12764
▁옹	-12765
▁져	-12766
▁죠	-12767
▁큐	-12768
▁튼	-12769
▁흡	-12770
てる	-12771
人的	-12772
가다	-12773
가슴	-12774
거고	-12775
것은	-12776
곡도	-12777
과의	-12778
기증	-12779
녀석	-12780
년간	-12781
다오	-12782
답다	-12783
대사	-12784
도는	-12785
뒤에	-12786
디기	-12787
레오	-12788
렌다	-12789
마리	-12790
만을	-12791
맛이	-12792
모양	-12793
뭔데	-12794
발랄	-12795
방위	-12796
뱅크	-12797
빙수	-12798
사로	-12799
상을	-12800
생에	-12801
서도	-12802
설아	-12803
수준	-12804
슴다	-12805
실에	-12806
야할	-12807
어는	-12808
어마	-12809
엇다	-12810
었지	-12811
여기	-12812
오르	-12813
요즘	-12814
은듯	-12815
음을	-12816
이블	-12817
이쁜	-12818
일지	-12819
자랑	-12820
장난	-12821
죽어	-12822
지나	-12823
질때	-12824
질뻔	-12825
질이	-12826
짓을	-12827
차가	-12828
초밥	-12829
칠때	-12830
캐리	-12831
커신	-12832
케미	-12833
타임	-12834
테리	-12835
틱톡	-12836
포뇨	-12837
한텐	-12838
해짐	-12839
형은	-12840
💋💋	-12841
💔💔	-12842
😭❤	-12843
---	-12844
?!?	-12845
ANE	-12846
Cam	-12847
Str	-12848
aca	-12849
alo	-12850
aur	-12851
bPz	-12852
ced	-12853
gar	-12854
igg	-12855
ilh	-12856
imb	-12857
imo	-12858
lex	-12859
oco	-12860
ork	-12861
tro	-12862
uel	-12863
usI	-12864
ção	-12865
ías	-12866
ень	-12867
оми	-12868
▁(◡	-12869
▁AF	-12870
▁Eu	-12871
▁JT	-12872
▁Ji	-12873
▁PD	-12874
▁Xo	-12875
▁Yo	-12876
▁eh	-12877
▁tv	-12878
▁uu	-12879
▁ún	-12880
▁في	-12881
▁ᄋᄂ	-12882
▁ᅮᅲ	-12883
▁◡)	-12884
▁감자	-12885
▁검정	-12886
▁겨우	-12887
▁경찰	-12888
▁광대	-12889
▁귀가	-12890
▁금발	-12891
▁기록	-12892
▁기쁨	-12893
▁길게	-12894
▁깔깔	-12895
▁꿈을	-12896
▁나면	-12897
▁내고	-12898
▁내주	-12899
▁놀람	-12900
▁누른	-12901
▁닝젤	-12902
▁담당	-12903
▁대견	-12904
▁덕에	-12905
▁도라	-12906
▁도입	-12907
▁동화	-12908
▁된거	-12909
▁듯한	-12910
▁떠서	-12911
▁랩퍼	-12912
▁마술	-12913
▁맞을	-12914
▁메이	-12915
▁며느	-12916
▁몇일	-12917
▁미숙	-12918
▁민수	-12919
▁믿을	-12920
▁바랄	-12921
▁박자	-12922
▁밤은	-12923
▁버리	-12924
▁보낼	-12925
▁보일	-12926
▁복잡	-12927
▁봤던	-12928
▁부정	-12929
▁분은	-12930
▁비님	-12931
▁빠짐	-12932
▁빵빵	-12933
▁산책	-12934
▁생길	-12935
▁생축	-12936
▁스프	-12937
▁신의	-12938
▁실물	-12939
▁쏟아	-12940
▁쓰지	-12941
▁안다	-12942
▁안맞	-12943
▁안본	-12944
▁에어	-12945
▁에휴	-12946
▁여보	-12947
▁와사	-12948
▁요남	-12949
▁웃어	-12950
▁원탑	-12951
▁위드	-12952
▁유전	-12953
▁이딴	-12954
▁인딕	-12955
▁일도	-12956
▁일병	-12957
▁있길	-12958
▁있냐	-12959
▁자두	-12960
▁잘되	-12961
▁잘먹	-12962
▁저랑	-12963
▁정규	-12964
▁정성	-12965
▁존중	-12966
▁좀더	-12967
▁주먹	-12968
▁줄줄	-12969
▁짱짱	-12970
▁쩌미	-12971
▁찍는	-12972
▁참여	-12973
▁창의	-12974
▁채워	-12975
▁춤선	-12976
▁친근	-12977
▁컸네	-12978
▁켜져	-12979
▁크루	-12980
▁특이	-12981
▁틀린	-12982
▁판단	-12983
▁팩트	-12984
▁펀치	-12985
▁필수	-12986
▁할로	-12987
▁해맑	-12988
▁현웃	-12989
▁호흡	-12990
▁화려	-12991
▁확진	-12992
ヌード	-12993
그대로	-12994
내는거	-12995
린다고	-12996
모르게	-12997
바위보	-12998
보여서	-12999
보이네	-13000
보인다	-13001
쁩니다	-13002
세상에	-13003
셨는데	-13004
신가요	-13005
없어서	-13006
었구나	-13007
으로는	-13008
이었던	-13009
입니까	-13010
입니당	-13011
있는지	-13012
있다고	-13013
집에서	-13014
창시절	-13015
팔씨름	-13016
))))	-13017
2021	-13018
TTTT	-13019
UUUU	-13020
abil	-13021
aces	-13022
ague	-13023
ains	-13024
anks	-13025
ario	-13026
atus	-13027
ffee	-13028
hehe	-13029
ples	-13030
uine	-13031
▁Del	-13032
▁Gue	-13033
▁ILY	-13034
▁Idk	-13035
▁ace	-13036
▁alg	-13037
▁chứ	-13038
▁dim	-13039
▁goo	-13040
▁kaj	-13041
▁lak	-13042
▁lực	-13043
▁mới	-13044
▁nak	-13045
▁não	-13046
▁qua	-13047
▁thế	-13048
▁tol	-13049
▁ult	-13050
▁что	-13051
▁это	-13052
▁가만히	-13053
▁같지만	-13054
▁개소름	-13055
▁갱상도	-13056
▁건강히	-13057
▁고마운	-13058
▁곳에서	-13059
▁귀엽냐	-13060
▁그것은	-13061
▁나가서	-13062
▁다니고	-13063
▁다르네	-13064
▁다음은	-13065
▁닮아서	-13066
▁도움이	-13067
▁되겠다	-13068
▁들어와	-13069
▁들으며	-13070
▁듭니다	-13071
▁똑부러	-13072
▁똠양꿍	-13073
▁뚜껑이	-13074
▁마동석	-13075
▁만나고	-13076
▁만나는	-13077
▁머선일	-13078
▁멘보샤	-13079
▁몇번째	-13080
▁모습에	-13081
▁모음집	-13082
▁뭐냐고	-13083
▁믿고있	-13084
▁반가워	-13085
▁보내고	-13086
▁보험금	-13087
▁사는데	-13088
▁생기는	-13089
▁손가락	-13090
▁수고많	-13091
▁시간에	-13092
▁시준희	-13093
▁신병이	-13094
▁실력이	-13095
▁아닌듯	-13096
▁안좋아	-13097
▁애기가	-13098
▁없으니	-13099
▁엔조이	-13100
▁여자분	-13101
▁영어로	-13102
▁예뻐라	-13103
▁오빠가	-13104
▁웃기지	-13105
▁유명한	-13106
▁유아님	-13107
▁음악은	-13108
▁의가사	-13109
▁이모가	-13110
▁이부분	-13111
▁이언니	-13112
▁있었네	-13113
▁자라라	-13114
▁저절로	-13115
▁저정도	-13116
▁좋아용	-13117
▁죽이고	-13118
▁지내고	-13119
▁짜릿해	-13120
▁차이나	-13121
▁참교육	-13122
▁천재다	-13123
▁큰그림	-13124
▁특유의	-13125
▁퍼포먼	-13126
▁평범한	-13127
▁풀어주	-13128
▁하나로	-13129
▁하루를	-13130
▁한문철	-13131
▁해봐요	-13132
▁형님은	-13133
▁활동도	-13134
개웃기네	-13135
너무웃겨	-13136
네ᄏᄏᄏ	-13137
어어어어	-13138
좀비시즌	-13139
𐌅𐌅𐌅𐌅	-13140
..!!!	-13141
cheol	-13142
juang	-13143
kkkkk	-13144
uliah	-13145
ungch	-13146
▁0:53	-13147
▁2:23	-13148
▁4:45	-13149
▁7:35	-13150
▁ALSO	-13151
▁Ayoo	-13152
▁Give	-13153
▁KPOP	-13154
▁Lots	-13155
▁Make	-13156
▁Many	-13157
▁Mari	-13158
▁anim	-13159
▁clos	-13160
▁duda	-13161
▁form	-13162
▁gent	-13163
▁indo	-13164
▁kept	-13165
▁ngeb	-13166
▁nger	-13167
▁semi	-13168
▁semp	-13169
▁tiap	-13170
▁tăng	-13171
▁yokk	-13172
▁احبك	-13173
▁결혼식이	-13174
▁기대하고	-13175
▁꾸러기들	-13176
▁나오는데	-13177
▁다시봐도	-13178
▁들어가서	-13179
▁디도스는	-13180
▁마시멜로	-13181
▁많이많이	-13182
▁보여줘서	-13183
▁보입니다	-13184
▁사람들도	-13185
▁사람들을	-13186
▁쇼메이커	-13187
▁시리즈가	-13188
▁아닙니까	-13189
▁아쉽네요	-13190
▁안그래도	-13191
▁알려주는	-13192
▁어렸을때	-13193
▁엄마아빠	-13194
▁에스파는	-13195
▁여러가지	-13196
▁영식이형	-13197
▁오우오우	-13198
▁이야기가	-13199
▁이제부터	-13200
▁임시차로	-13201
▁있습니까	-13202
▁잘했어요	-13203
▁재밌는데	-13204
▁채널에서	-13205
▁최고네요	-13206
▁태어나서	-13207
▁햄연지님	-13208
私のヌード	-13209
GETHER	-13210
arable	-13211
bPzusI	-13212
estion	-13213
ivitas	-13214
uinely	-13215
▁05:00	-13216
▁10:10	-13217
▁Jieun	-13218
▁KOREA	-13219
▁SONGS	-13220
▁TERIM	-13221
▁Vocal	-13222
▁admir	-13223
▁ahhhh	-13224
▁broke	-13225
▁bueno	-13226
▁dapat	-13227
▁domin	-13228
▁early	-13229
▁españ	-13230
▁front	-13231
▁grate	-13232
▁greet	-13233
▁hidup	-13234
▁jokes	-13235
▁manis	-13236
▁minum	-13237
▁trend	-13238
▁vídeo	-13239
▁water	-13240
▁women	-13241
▁woozi	-13242
▁감사드려요	-13243
▁귀여워ᅲᅲ	-13244
▁나와주세요	-13245
▁신병시리즈	-13246
▁어머니한테	-13247
▁잘어울린다	-13248
▁콜라보라니	-13249
▁호박고구마	-13250
욬ᄏᄏᄏᄏᄏ	-13251
icially	-13252
istence	-13253
▁Sayang	-13254
▁amazed	-13255
▁badass	-13256
▁barbie	-13257
▁berasa	-13258
▁cuteee	-13259
▁dengar	-13260
▁effect	-13261
▁fancam	-13262
▁ghosts	-13263
▁haters	-13264
▁kesini	-13265
▁middle	-13266
▁potter	-13267
▁기다렸습니다	-13268
,,,,,,,,	-13269
ountdown	-13270
▁.......	-13271
▁brought	-13272
▁changed	-13273
▁connect	-13274
▁corazón	-13275
▁curious	-13276
▁digital	-13277
▁enhypen	-13278
▁genuine	-13279
▁kembali	-13280
▁message	-13281
▁natural	-13282
▁nctzens	-13283
▁ngomong	-13284
▁reality	-13285
▁setelah	-13286
▁styling	-13287
▁viewers	-13288
▁Hahahaha	-13289
▁TOGETHER	-13290
▁decision	-13291
▁episodes	-13292
▁familiar	-13293
▁perfeita	-13294
▁universe	-13295
▁ᄒᄒᄒᄒᄒᄒᄒᄒ	-13296
▁SEMANGATT	-13297
▁currently	-13298
▁genuinely	-13299
▁signature	-13300
▁definition	-13301
▁intelligent	-13302
▁mencintaimu	-13303
💜💜💜💜💜💜💜💜💜💜💜💜💜💜💜💜	-13304
!♡	-13305
",	-13306
GR	-13307
HE	-13308
KS	-13309
SM	-13310
da	-13311
ez	-13312
su	-13313
sy	-13314
tv	-13315
áy	-13316
ối	-13317
ồn	-13318
▁ω	-13319
▁О	-13320
▁ق	-13321
▁我	-13322
▁갇	-13323
▁갬	-13324
▁겉	-13325
▁굵	-13326
▁껴	-13327
▁끈	-13328
▁낸	-13329
▁룰	-13330
▁맙	-13331
▁맹	-13332
▁봣	-13333
▁뵈	-13334
▁뷰	-13335
▁썩	-13336
▁쟤	-13337
▁쫑	-13338
▁콜	-13339
▁탁	-13340
▁헌	-13341
▁👉	-13342
▁😎	-13343
♡^	-13344
から	-13345
ない	-13346
가리	-13347
개를	-13348
겠냐	-13349
고증	-13350
국에	-13351
급이	-13352
기분	-13353
기엽	-13354
났어	-13355
내서	-13356
내용	-13357
내일	-13358
눈이	-13359
느껴	-13360
느니	-13361
는뎈	-13362
당신	-13363
드에	-13364
든가	-13365
들에	-13366
디건	-13367
뚜기	-13368
러워	-13369
마미	-13370
만두	-13371
만든	-13372
만세	-13373
말은	-13374
맘을	-13375
무대	-13376
무를	-13377
미다	-13378
보드	-13379
보며	-13380
사도	-13381
사에	-13382
상윤	-13383
수업	-13384
시대	-13385
시도	-13386
써서	-13387
아ᅡ	-13388
아라	-13389
아재	-13390
예진	-13391
오나	-13392
왔네	-13393
이당	-13394
이든	-13395
일본	-13396
있냐	-13397
있던	-13398
자도	-13399
자인	-13400
잘못	-13401
잘생	-13402
져야	-13403
주로	-13404
줄까	-13405
즈바	-13406
징역	-13407
출연	-13408
투표	-13409
편이	-13410
프레	-13411
하우	-13412
햇살	-13413
..)	-13414
DER	-13415
ORT	-13416
ORY	-13417
OWN	-13418
iba	-13419
jus	-13420
ona	-13421
set	-13422
tsd	-13423
uju	-13424
غني	-13425
ᄀᄀᄀ	-13426
▁09	-13427
▁Bi	-13428
▁CO	-13429
▁EM	-13430
▁Em	-13431
▁FL	-13432
▁NA	-13433
▁OP	-13434
▁OT	-13435
▁PE	-13436
▁ir	-13437
▁về	-13438
▁ơn	-13439
▁ᄒᄋ	-13440
▁가려	-13441
▁간장	-13442
▁개지	-13443
▁건지	-13444
▁걸로	-13445
▁걸작	-13446
▁고문	-13447
▁구경	-13448
▁구매	-13449
▁국군	-13450
▁국물	-13451
▁귀한	-13452
▁기달	-13453
▁기원	-13454
▁김장	-13455
▁깜놀	-13456
▁끊어	-13457
▁끼고	-13458
▁나름	-13459
▁내놔	-13460
▁내는	-13461
▁냅다	-13462
▁넣은	-13463
▁노란	-13464
▁노잼	-13465
▁놀고	-13466
▁님들	-13467
▁달성	-13468
▁동갑	-13469
▁듣던	-13470
▁땜에	-13471
▁떡밥	-13472
▁로고	-13473
▁로또	-13474
▁마누	-13475
▁만두	-13476
▁맞추	-13477
▁멈추	-13478
▁며칠	-13479
▁모여	-13480
▁무도	-13481
▁미쓰	-13482
▁믿기	-13483
▁바래	-13484
▁보자	-13485
▁분량	-13486
▁생겨	-13487
▁세트	-13488
▁손님	-13489
▁손해	-13490
▁슬픔	-13491
▁싶음	-13492
▁애가	-13493
▁애를	-13494
▁역겨	-13495
▁요약	-13496
▁요정	-13497
▁윤집	-13498
▁으로	-13499
▁인재	-13500
▁입에	-13501
▁잠만	-13502
▁장병	-13503
▁저딴	-13504
▁저래	-13505
▁정답	-13506
▁정석	-13507
▁정의	-13508
▁졸업	-13509
▁종종	-13510
▁주신	-13511
▁준영	-13512
▁줄어	-13513
▁줘야	-13514
▁차병	-13515
▁창모	-13516
▁체고	-13517
▁초심	-13518
▁추워	-13519
▁치는	-13520
▁카페	-13521
▁턱살	-13522
▁펑펑	-13523
▁피로	-13524
▁학원	-13525
▁한줄	-13526
▁행정	-13527
▁환장	-13528
▁후손	-13529
▁흥미	-13530
갈수록	-13531
것같아	-13532
것같음	-13533
급으로	-13534
까지도	-13535
나오네	-13536
노래도	-13537
드네요	-13538
보이고	-13539
슈뻘맨	-13540
스토리	-13541
시는게	-13542
오늘도	-13543
워너비	-13544
이었음	-13545
이잖아	-13546
인줄알	-13547
지않은	-13548
파뿌리	-13549
파이가	-13550
하는것	-13551
하시죠	-13552
하지도	-13553
한거지	-13554
한테도	-13555
...❤	-13556
____	-13557
anyi	-13558
awan	-13559
ibly	-13560
inos	-13561
kses	-13562
kwan	-13563
▁ACT	-13564
▁Abs	-13565
▁Boy	-13566
▁Dam	-13567
▁Des	-13568
▁Dis	-13569
▁END	-13570
▁LEE	-13571
▁MAN	-13572
▁MEN	-13573
▁Mau	-13574
▁New	-13575
▁POR	-13576
▁Suk	-13577
▁Top	-13578
▁VER	-13579
▁Woo	-13580
▁^_^	-13581
▁aaa	-13582
▁boo	-13583
▁bur	-13584
▁dat	-13585
▁esp	-13586
▁gil	-13587
▁jae	-13588
▁kak	-13589
▁kit	-13590
▁lif	-13591
▁lma	-13592
▁qué	-13593
▁red	-13594
▁sea	-13595
▁skr	-13596
▁thể	-13597
▁tom	-13598
▁tốt	-13599
▁vir	-13600
▁viu	-13601
▁~^^	-13602
▁가득한	-13603
▁가디건	-13604
▁가보자	-13605
▁가사도	-13606
▁가족들	-13607
▁개웃기	-13608
▁건강해	-13609
▁겁니다	-13610
▁결혼을	-13611
▁공감이	-13612
▁귀여웤	-13613
▁그만해	-13614
▁기억에	-13615
▁나이도	-13616
▁남자들	-13617
▁네이버	-13618
▁눈덮인	-13619
▁느낌도	-13620
▁대통령	-13621
▁동생들	-13622
▁들어간	-13623
▁들어야	-13624
▁많아요	-13625
▁말하고	-13626
▁맞아요	-13627
▁매니저	-13628
▁먹는데	-13629
▁모두들	-13630
▁무섭네	-13631
▁미쳐따	-13632
▁민영님	-13633
▁바람을	-13634
▁보는게	-13635
▁보세요	-13636
▁본인의	-13637
▁봤으면	-13638
▁분들도	-13639
▁불쌍해	-13640
▁비타민	-13641
▁사고가	-13642
▁사랑의	-13643
▁사랑할	-13644
▁상태로	-13645
▁세비지	-13646
▁소대장	-13647
▁소미의	-13648
▁소주가	-13649
▁소주를	-13650
▁수빙수	-13651
▁시어머	-13652
▁신경쓰	-13653
▁신곡도	-13654
▁신입생	-13655
▁아이구	-13656
▁안타까	-13657
▁안타깝	-13658
▁안해도	-13659
▁앉아서	-13660
▁얘기가	-13661
▁어때요	-13662
▁완전히	-13663
▁우나나	-13664
▁우리나	-13665
▁운동도	-13666
▁웃기넼	-13667
▁웃었네	-13668
▁윈터랑	-13669
▁유용한	-13670
▁유익한	-13671
▁음색이	-13672
▁의미가	-13673
▁이것도	-13674
▁이라는	-13675
▁이래도	-13676
▁인생의	-13677
▁인직형	-13678
▁일본어	-13679
▁자격이	-13680
▁정확히	-13681
▁좋다고	-13682
▁좋아지	-13683
▁취미로	-13684
▁치킨은	-13685
▁퀸가비	-13686
▁타이밍	-13687
▁터지고	-13688
▁표예진	-13689
▁하나의	-13690
▁하던데	-13691
▁한번더	-13692
▁한번에	-13693
▁헬스장	-13694
▁형님의	-13695
▁힘들면	-13696
스럽네요	-13697
하는거야	-13698
하는것도	-13699
할때마다	-13700
💓💓💓💓	-13701
💗💗💗💗	-13702
CLICK	-13703
ISTEN	-13704
akhir	-13705
ambat	-13706
asily	-13707
ellow	-13708
icult	-13709
night	-13710
otify	-13711
▁2022	-13712
▁2:02	-13713
▁2:25	-13714
▁6:08	-13715
▁ARTE	-13716
▁Baru	-13717
▁EVEN	-13718
▁Este	-13719
▁Herm	-13720
▁High	-13721
▁Icon	-13722
▁JUGA	-13723
▁PAGI	-13724
▁Park	-13725
▁REAL	-13726
▁Real	-13727
▁Việt	-13728
▁Wish	-13729
▁Xiao	-13730
▁XoXo	-13731
▁deny	-13732
▁feed	-13733
▁flow	-13734
▁goal	-13735
▁ikut	-13736
▁jeno	-13737
▁nada	-13738
▁ngày	-13739
▁stom	-13740
▁swan	-13741
▁tema	-13742
▁tiga	-13743
▁trời	-13744
▁você	-13745
▁wife	-13746
▁yaaa	-13747
▁động	-13748
▁가수였어	-13749
▁강호이라	-13750
▁구름시티	-13751
▁궁금하네	-13752
▁나오시는	-13753
▁너무예뻐	-13754
▁너무조아	-13755
▁드라마로	-13756
▁똑똑해요	-13757
▁마음으로	-13758
▁많았는데	-13759
▁매직아이	-13760
▁먹고싶다	-13761
▁멤버들이	-13762
▁모르겠네	-13763
▁무기징역	-13764
▁무엇보다	-13765
▁반호이는	-13766
▁보이는데	-13767
▁사람으로	-13768
▁사람인데	-13769
▁살아가는	-13770
▁상윤쓰님	-13771
▁생각해서	-13772
▁순수하고	-13773
▁시작해서	-13774
▁아이유를	-13775
▁안되나요	-13776
▁않을까요	-13777
▁야무지게	-13778
▁없으니까	-13779
▁울하영이	-13780
▁웃기네요	-13781
▁웃었어요	-13782
▁윤모한테	-13783
▁이번편은	-13784
▁이와중에	-13785
▁인터넷도	-13786
▁잘봤어요	-13787
▁재밌겠다	-13788
▁재밌어서	-13789
▁전역한지	-13790
▁조심하고	-13791
▁처음이다	-13792
▁취요남님	-13793
▁포기하지	-13794
▁하나같이	-13795
▁하늘에서	-13796
줄알았는데	-13797
APPOIN	-13798
eeeeee	-13799
enceng	-13800
istent	-13801
secure	-13802
▁Ahhhh	-13803
▁CUTEE	-13804
▁Chris	-13805
▁Dingo	-13806
▁GIVES	-13807
▁GONNA	-13808
▁RIGHT	-13809
▁WORLD	-13810
▁Woozi	-13811
▁boleh	-13812
▁dunia	-13813
▁gente	-13814
▁hotel	-13815
▁immed	-13816
▁kalah	-13817
▁names	-13818
▁parte	-13819
▁pliss	-13820
▁pract	-13821
▁press	-13822
▁pride	-13823
▁raise	-13824
▁reina	-13825
▁salah	-13826
▁share	-13827
▁sukaa	-13828
▁table	-13829
▁twins	-13830
▁usaha	-13831
▁whist	-13832
▁감동입니다	-13833
▁기대됩니다	-13834
▁나혼자산다	-13835
▁떨어지는데	-13836
▁멋지십니다	-13837
▁보고싶네요	-13838
▁순살만공격	-13839
▁조금이라도	-13840
▁종국이형은	-13841
▁좋았을텐데	-13842
▁처음보는데	-13843
▁킬링보이스	-13844
▁타이타닉을	-13845
▁CRYING	-13846
▁Finals	-13847
▁SEBONG	-13848
▁Seeing	-13849
▁amamos	-13850
▁bestie	-13851
▁cantar	-13852
▁challe	-13853
▁chills	-13854
▁coffee	-13855
▁dukung	-13856
▁easily	-13857
▁esfuer	-13858
▁higher	-13859
▁humble	-13860
▁itself	-13861
▁jajaja	-13862
▁muchas	-13863
▁oldest	-13864
▁replay	-13865
▁return	-13866
▁simply	-13867
▁voices	-13868
▁ᄒᄒᄒᄒᄒᄒ	-13869
▁대단하십니다	-13870
▁시즌좀비시즌	-13871
▁자랑스러워요	-13872
aaaaaaaa	-13873
▁Definit	-13874
▁GETTING	-13875
▁Makasih	-13876
▁convers	-13877
▁funnier	-13878
▁literal	-13879
▁mukbang	-13880
▁Subtitle	-13881
▁charming	-13882
▁cuteness	-13883
▁grateful	-13884
▁millones	-13885
▁perfecto	-13886
▁speaking	-13887
▁striming	-13888
▁sungchan	-13889
▁treasure	-13890
▁DISAPPOIN	-13891
▁angelical	-13892
▁basically	-13893
▁difficult	-13894
▁nostalgic	-13895
▁staircase	-13896
▁BLACKLABEL	-13897
▁attractive	-13898
▁dedication	-13899
▁dissapoint	-13900
▁everywhere	-13901
▁hahahahaha	-13902
▁impossible	-13903
▁referencia	-13904
▁speechless	-13905
▁Philippines	-13906
▁expressions	-13907
▁interaction	-13908
▁unconfirmed	-13909
-------------	-13910
.............	-13911
!!!!!!!!!!!!!!	-13912
.”	-13913
1,	-13914
84	-13915
=0	-13916
BA	-13917
BO	-13918
CU	-13919
IZ	-13920
XI	-13921
YT	-13922
bi	-13923
ug	-13924
ÓN	-13925
ào	-13926
ãi	-13927
ít	-13928
ви	-13929
ни	-13930
уч	-13931
ار	-13932
هي	-13933
ัน	-13934
ี่	-13935
่า	-13936
ᄉᄋ	-13937
ᄋᄀ	-13938
ᅳᅮ	-13939
▁т	-13940
▁أ	-13941
▁ᄎ	-13942
▁ᅡ	-13943
▁걔	-13944
▁납	-13945
▁냈	-13946
▁놔	-13947
▁띠	-13948
▁뢴	-13949
▁맵	-13950
▁앗	-13951
▁얇	-13952
▁웹	-13953
▁캠	-13954
▁팍	-13955
▁폼	-13956
▁💘	-13957
▁💙	-13958
▁😱	-13959
▁🙂	-13960
⫬⫬	-13961
가득	-13962
강호	-13963
고맙	-13964
고에	-13965
곳이	-13966
국물	-13967
권도	-13968
기간	-13969
꾸로	-13970
나온	-13971
날듯	-13972
니가	-13973
닝닝	-13974
다들	-13975
닮았	-13976
답게	-13977
대결	-13978
대기	-13979
드라	-13980
러서	-13981
려니	-13982
려도	-13983
력은	-13984
른거	-13985
리며	-13986
리트	-13987
릴때	-13988
링크	-13989
맛있	-13990
박이	-13991
박지	-13992
박한	-13993
반데	-13994
방기	-13995
변경	-13996
복이	-13997
봤네	-13998
부탁	-13999
분의	-14000
빌딩	-14001
사실	-14002
상의	-14003
성도	-14004
센스	-14005
셨음	-14006
수의	-14007
스토	-14008
아는	-14009
아찌	-14010
안되	-14011
알아	-14012
억뷰	-14013
었을	-14014
였고	-14015
왔어	-14016
왤케	-14017
운게	-14018
위가	-14019
으실	-14020
으키	-14021
윽시	-14022
이걸	-14023
이프	-14024
이후	-14025
인기	-14026
인디	-14027
인물	-14028
일때	-14029
장군	-14030
재해	-14031
저는	-14032
제도	-14033
좀비	-14034
중이	-14035
줘도	-14036
지션	-14037
진심	-14038
찰떡	-14039
창호	-14040
태용	-14041
품이	-14042
프다	-14043
🌹🌹	-14044
!!.	-14045
HAE	-14046
HAN	-14047
HDR	-14048
ICH	-14049
ITS	-14050
She	-14051
aaf	-14052
can	-14053
cin	-14054
emb	-14055
fan	-14056
jak	-14057
jin	-14058
juk	-14059
lio	-14060
omu	-14061
oop	-14062
oot	-14063
oto	-14064
ppy	-14065
rit	-14066
upu	-14067
ᄅᄏᄅ	-14068
ᄐᄏᄏ	-14069
▁37	-14070
▁DU	-14071
▁Gi	-14072
▁MC	-14073
▁MO	-14074
▁fu	-14075
▁jg	-14076
▁rù	-14077
▁đc	-14078
▁ᄌᄅ	-14079
▁❌⭕	-14080
▁가기	-14081
▁개명	-14082
▁개발	-14083
▁건들	-14084
▁과정	-14085
▁구분	-14086
▁구수	-14087
▁국방	-14088
▁국제	-14089
▁기뻐	-14090
▁기술	-14091
▁길이	-14092
▁깜찍	-14093
▁꿈꾸	-14094
▁나갔	-14095
▁나고	-14096
▁날라	-14097
▁남을	-14098
▁넘모	-14099
▁노무	-14100
▁다름	-14101
▁다섯	-14102
▁다운	-14103
▁단체	-14104
▁달고	-14105
▁둘의	-14106
▁들이	-14107
▁루돌	-14108
▁리즈	-14109
▁마마	-14110
▁만에	-14111
▁말랑	-14112
▁말아	-14113
▁맞네	-14114
▁먹은	-14115
▁메달	-14116
▁못함	-14117
▁무사	-14118
▁미성	-14119
▁미칠	-14120
▁박살	-14121
▁배틀	-14122
▁보지	-14123
▁봤어	-14124
▁부디	-14125
▁붙여	-14126
▁빛이	-14127
▁빨라	-14128
▁뿜뿜	-14129
▁사흘	-14130
▁산냥	-14131
▁살다	-14132
▁살살	-14133
▁삼겹	-14134
▁상훈	-14135
▁생명	-14136
▁생존	-14137
▁샤워	-14138
▁속상	-14139
▁쇼크	-14140
▁습관	-14141
▁시기	-14142
▁시선	-14143
▁신나	-14144
▁싶을	-14145
▁쓰잘	-14146
▁씻고	-14147
▁아껴	-14148
▁아부	-14149
▁안바	-14150
▁안죽	-14151
▁알람	-14152
▁알림	-14153
▁없죠	-14154
▁여긴	-14155
▁오후	-14156
▁왕자	-14157
▁워낙	-14158
▁유툽	-14159
▁육아	-14160
▁이뿐	-14161
▁일은	-14162
▁작명	-14163
▁잘안	-14164
▁잘한	-14165
▁잠을	-14166
▁장교	-14167
▁장인	-14168
▁재료	-14169
▁저장	-14170
▁적은	-14171
▁적혀	-14172
▁주황	-14173
▁줄은	-14174
▁중공	-14175
▁중대	-14176
▁지독	-14177
▁지루	-14178
▁진자	-14179
▁집이	-14180
▁쭉쭉	-14181
▁최초	-14182
▁축가	-14183
▁출근	-14184
▁충전	-14185
▁카레	-14186
▁클래	-14187
▁태일	-14188
▁터진	-14189
▁틱톡	-14190
▁팬티	-14191
▁하아	-14192
▁한바	-14193
▁할거	-14194
▁할줄	-14195
▁햇살	-14196
▁형을	-14197
▁👍👍	-14198
▁🥺❤	-14199
人的な	-14200
것같은	-14201
귀여움	-14202
귀여웡	-14203
기위해	-14204
냅니다	-14205
되세요	-14206
들이네	-14207
마트폰	-14208
보이지	-14209
속도로	-14210
엇는데	-14211
올림픽	-14212
좋은데	-14213
지않게	-14214
쯔양님	-14215
층에서	-14216
하거나	-14217
하냐고	-14218
하신거	-14219
한거임	-14220
해보자	-14221
해주면	-14222
했더니	-14223
형님이	-14224
🥰🥰🥰	-14225
..^^	-14226
AKAK	-14227
ASON	-14228
ATCH	-14229
Jung	-14230
KKKK	-14231
LOVE	-14232
ONEY	-14233
OUGH	-14234
OWER	-14235
Solo	-14236
That	-14237
asss	-14238
ding	-14239
emen	-14240
erah	-14241
esai	-14242
feat	-14243
gual	-14244
ibur	-14245
ided	-14246
mais	-14247
ooth	-14248
oria	-14249
osos	-14250
reck	-14251
ring	-14252
taro	-14253
what	-14254
wwww	-14255
yeon	-14256
~!~!	-14257
ᄏᄏᄏᄀ	-14258
ᄐᄏᄏᄏ	-14259
▁AAA	-14260
▁Add	-14261
▁Dan	-14262
▁HIM	-14263
▁Jae	-14264
▁LCK	-14265
▁LIP	-14266
▁PRE	-14267
▁Set	-14268
▁Sha	-14269
▁Sim	-14270
▁Skt	-14271
▁Tet	-14272
▁Yok	-14273
▁arm	-14274
▁bab	-14275
▁cas	-14276
▁chi	-14277
▁cảm	-14278
▁ele	-14279
▁fas	-14280
▁hes	-14281
▁hor	-14282
▁ily	-14283
▁kag	-14284
▁key	-14285
▁lim	-14286
▁muc	-14287
▁mắt	-14288
▁pri	-14289
▁pul	-14290
▁shy	-14291
▁sức	-14292
▁tục	-14293
▁val	-14294
▁wig	-14295
▁люб	-14296
▁갈게요	-14297
▁같은거	-14298
▁거기다	-14299
▁걸려서	-14300
▁것으로	-14301
▁귀엽구	-14302
▁김정우	-14303
▁나가는	-14304
▁나와요	-14305
▁느끼고	-14306
▁닝깅이	-14307
▁다음날	-14308
▁닮으셨	-14309
▁돈내고	-14310
▁동생아	-14311
▁됐는데	-14312
▁되니까	-14313
▁되었다	-14314
▁된다고	-14315
▁마시는	-14316
▁마인드	-14317
▁만들었	-14318
▁많으셨	-14319
▁먹어서	-14320
▁먹어요	-14321
▁먹을때	-14322
▁모든걸	-14323
▁몰랐네	-14324
▁묘하게	-14325
▁뭐든지	-14326
▁민방위	-14327
▁밑에서	-14328
▁박민규	-14329
▁밖에서	-14330
▁반대로	-14331
▁발라드	-14332
▁방법은	-14333
▁버리고	-14334
▁보이지	-14335
▁부르고	-14336
▁불가능	-14337
▁브랜드	-14338
▁살아가	-14339
▁상황을	-14340
▁소고기	-14341
▁소리를	-14342
▁속도가	-14343
▁신기한	-14344
▁싫어서	-14345
▁쌩얼이	-14346
▁아는데	-14347
▁안에서	-14348
▁않은데	-14349
▁어울려	-14350
▁연지씨	-14351
▁요리를	-14352
▁위에서	-14353
▁윈터님	-14354
▁윈터야	-14355
▁윤정씨	-14356
▁의외로	-14357
▁이등병	-14358
▁이슬람	-14359
▁이형은	-14360
▁인가요	-14361
▁있기를	-14362
▁작품을	-14363
▁잘해서	-14364
▁정신이	-14365
▁정하니	-14366
▁즐거워	-14367
▁즐기는	-14368
▁찍어주	-14369
▁챙겨주	-14370
▁최고로	-14371
▁추억의	-14372
▁칭찬해	-14373
▁코리안	-14374
▁테스트	-14375
▁팔시름	-14376
▁팬인데	-14377
▁풀버전	-14378
▁피부가	-14379
▁하나요	-14380
▁하는것	-14381
▁하늘에	-14382
▁한동안	-14383
▁한명이	-14384
▁헤이즐	-14385
▁현기증	-14386
▁현실은	-14387
▁혹시나	-14388
▁화장실	-14389
▁힘내요	-14390
▁힘들고	-14391
▁👍👍👍	-14392
個人的な	-14393
건강하게	-14394
것같네요	-14395
먹으면서	-14396
좋아하는	-14397
amond	-14398
entos	-14399
hhaha	-14400
light	-14401
nyata	-14402
rates	-14403
ulous	-14404
~~♡♡♡	-14405
▁0:13	-14406
▁0:27	-14407
▁127,	-14408
▁1:32	-14409
▁2016	-14410
▁2018	-14411
▁2:21	-14412
▁2:42	-14413
▁3:45	-14414
▁4:34	-14415
▁7:38	-14416
▁????	-14417
▁Army	-14418
▁Byun	-14419
▁Dari	-14420
▁Have	-14421
▁TIME	-14422
▁UDAH	-14423
▁WINS	-14424
▁Woww	-14425
▁amat	-14426
▁berd	-14427
▁cult	-14428
▁cùng	-14429
▁fill	-14430
▁godd	-14431
▁join	-14432
▁logr	-14433
▁mbak	-14434
▁memb	-14435
▁omgg	-14436
▁otra	-14437
▁prof	-14438
▁pron	-14439
▁shit	-14440
▁skip	-14441
▁spir	-14442
▁yukk	-14443
▁Соми	-14444
▁계란이형	-14445
▁궁금증이	-14446
▁귀여워죽	-14447
▁그랬는데	-14448
▁내주세요	-14449
▁노래들이	-14450
▁다르네요	-14451
▁들어와서	-14452
▁라치카는	-14453
▁모르겠고	-14454
▁밍꼬발랄	-14455
▁보기좋다	-14456
▁부분에서	-14457
▁성윤모의	-14458
▁세븐틴을	-14459
▁세븐틴의	-14460
▁시원하다	-14461
▁아이유랑	-14462
▁아이유와	-14463
▁안되는데	-14464
▁안된다고	-14465
▁어울리고	-14466
▁에너지가	-14467
▁영상이다	-14468
▁예능에서	-14469
▁오늘따라	-14470
▁오랫만에	-14471
▁움직이는	-14472
▁잘하신다	-14473
▁전역하고	-14474
▁좋아지고	-14475
▁좋아지는	-14476
▁티비에서	-14477
▁하는구나	-14478
▁하드캐리	-14479
▁학창시절	-14480
▁흔들리는	-14481
▁힐링하고	-14482
조심하세요	-14483
주문하셔야	-14484
.....?	-14485
;;;;;;	-14486
HDRCam	-14487
acular	-14488
earing	-14489
iiiiii	-14490
ilight	-14491
issors	-14492
▁Blink	-14493
▁Buvna	-14494
▁Candu	-14495
▁FAKER	-14496
▁GIRLS	-14497
▁Lilac	-14498
▁Maybe	-14499
▁TAEIL	-14500
▁THING	-14501
▁added	-14502
▁admit	-14503
▁asked	-14504
▁beats	-14505
▁capek	-14506
▁corre	-14507
▁decir	-14508
▁doang	-14509
▁gagal	-14510
▁hasta	-14511
▁hyped	-14512
▁igual	-14513
▁jjang	-14514
▁known	-14515
▁malam	-14516
▁malem	-14517
▁masuk	-14518
▁meant	-14519
▁mirip	-14520
▁mujer	-14521
▁nhanh	-14522
▁phone	-14523
▁tried	-14524
▁vamos	-14525
▁가위바위보	-14526
▁감사합니당	-14527
▁개그맨분들	-14528
▁궁금했는데	-14529
▁기다렸는데	-14530
▁되었습니다	-14531
▁들을때마다	-14532
▁보고싶은데	-14533
▁보기좋아요	-14534
▁사랑스러움	-14535
▁스트릿장구	-14536
▁아이유언니	-14537
▁이쁜하영이	-14538
▁있을거에요	-14539
▁자랑스럽게	-14540
▁주셨습니다	-14541
▁중대장님이	-14542
▁축하합니다	-14543
▁하나하나가	-14544
▁행복해지는	-14545
넼ᄏᄏᄏᄏᄏ	-14546
ination	-14547
ivating	-14548
▁Rapper	-14549
▁SAYANG	-14550
▁Worlds	-14551
▁asking	-14552
▁cullen	-14553
▁demais	-14554
▁enamor	-14555
▁flying	-14556
▁gimana	-14557
▁health	-14558
▁keluar	-14559
▁melted	-14560
▁nobody	-14561
▁semang	-14562
▁smooth	-14563
▁sukses	-14564
▁tolong	-14565
▁within	-14566
▁youuuu	-14567
▁너무귀여워요	-14568
▁화이팅입니다	-14569
個人的なビデオ	-14570
ecewakan	-14571
ᅳᅳᅳᅳᅳᅳᅳᅳ	-14572
▁Awesome	-14573
▁British	-14574
▁Indones	-14575
▁Welcome	-14576
▁actress	-14577
▁dislike	-14578
▁fucking	-14579
▁padahal	-14580
▁persona	-14581
▁touched	-14582
▁towards	-14583
▁wearing	-14584
☆☆☆☆☆☆☆☆	-14585
닼ᄏᄏᄏᄏᄏᄏᄏ	-14586
▁Blueming	-14587
▁concepts	-14588
▁pigtails	-14589
▁standing	-14590
▁supposed	-14591
▁surprise	-14592
▁sweetest	-14593
▁CARATDEUL	-14594
▁Everytime	-14595
▁Streaming	-14596
▁existence	-14597
▁promotion	-14598
▁releasing	-14599
▁storyline	-14600
▁HAHAHAHAHA	-14601
▁difference	-14602
▁highschool	-14603
▁officially	-14604
▁successful	-14605
▁supporting	-14606
▁recognition	-14607
▁terimakasih	-14608
私の最新の個人的なビデオ	-14609
▁conversation	-14610
▁mengecewakan	-14611
!!!!!!!!!!!!!!!	-14612
▁congratulations	-14613
헉헉헉헉헉헉헉헉헉헉헉헉헉헉헉헉	-14614
**	-14615
.2	-14616
14	-14617
16	-14618
23	-14619
BI	-14620
DD	-14621
EY	-14622
No	-14623
PE	-14624
RI	-14625
RO	-14626
St	-14627
WW	-14628
ZZ	-14629
`)	-14630
pm	-14631
wu	-14632
zu	-14633
ơi	-14634
ха	-14635
دا	-14636
ير	-14637
ᄌᄂ	-14638
ᄏᄀ	-14639
ᅣᅣ	-14640
ᅮᅣ	-14641
ắc	-14642
ểu	-14643
▁а	-14644
▁เ	-14645
▁ᄁ	-14646
▁ở	-14647
▁둥	-14648
▁듬	-14649
▁떴	-14650
▁빙	-14651
▁삭	-14652
▁섭	-14653
▁엇	-14654
▁웰	-14655
▁읍	-14656
▁줬	-14657
▁펜	-14658
▁👑	-14659
▁💛	-14660
▁💯	-14661
★★	-14662
いい	-14663
する	-14664
んだ	-14665
감독	-14666
경이	-14667
경훈	-14668
과는	-14669
극장	-14670
기면	-14671
남친	-14672
났네	-14673
너너	-14674
니티	-14675
더만	-14676
델루	-14677
동욱	-14678
동원	-14679
드로	-14680
라구	-14681
라임	-14682
로움	-14683
로워	-14684
록새	-14685
리니	-14686
리에	-14687
마늘	-14688
마시	-14689
만도	-14690
만해	-14691
맞고	-14692
먹자	-14693
멜론	-14694
명은	-14695
무무	-14696
반응	-14697
벌써	-14698
법칙	-14699
봤음	-14700
브라	-14701
사조	-14702
상은	-14703
상태	-14704
셨나	-14705
소한	-14706
쇼핑	-14707
쉬고	-14708
시가	-14709
시킨	-14710
심쿵	-14711
아자	-14712
안됨	-14713
어떡	-14714
올려	-14715
용디	-14716
워크	-14717
원에	-14718
위를	-14719
으려	-14720
이리	-14721
이션	-14722
임이	-14723
잇다	-14724
자신	-14725
장병	-14726
재범	-14727
쟈나	-14728
점에	-14729
정지	-14730
제일	-14731
좋네	-14732
좋음	-14733
주를	-14734
중독	-14735
줘라	-14736
지효	-14737
진렬	-14738
진이	-14739
짜나	-14740
체는	-14741
최강	-14742
치를	-14743
코드	-14744
타운	-14745
트키	-14746
판왕	-14747
하의	-14748
할지	-14749
합니	-14750
해졌	-14751
현실	-14752
회상	-14753
히고	-14754
🤭🤭	-14755
..,	-14756
CES	-14757
DAY	-14758
EEL	-14759
You	-14760
igo	-14761
ilo	-14762
ipp	-14763
irt	-14764
key	-14765
kig	-14766
lib	-14767
men	-14768
ngi	-14769
ram	-14770
uhh	-14771
war	-14772
òng	-14773
ᄒᄒᄏ	-14774
▁31	-14775
▁97	-14776
▁Ak	-14777
▁CL	-14778
▁DY	-14779
▁Dr	-14780
▁MI	-14781
▁SL	-14782
▁TY	-14783
▁jd	-14784
▁oj	-14785
▁tp	-14786
▁tí	-14787
▁가나	-14788
▁감격	-14789
▁건드	-14790
▁걷자	-14791
▁걸리	-14792
▁겸손	-14793
▁고추	-14794
▁고퀄	-14795
▁곡도	-14796
▁광란	-14797
▁그가	-14798
▁극대	-14799
▁급식	-14800
▁기부	-14801
▁기업	-14802
▁길을	-14803
▁나아	-14804
▁낳고	-14805
▁달리	-14806
▁담긴	-14807
▁당당	-14808
▁대리	-14809
▁대형	-14810
▁되나	-14811
▁두고	-14812
▁두근	-14813
▁든다	-14814
▁디피	-14815
▁따듯	-14816
▁딸도	-14817
▁때려	-14818
▁마침	-14819
▁만세	-14820
▁많네	-14821
▁먹지	-14822
▁멍청	-14823
▁모른	-14824
▁못생	-14825
▁묻어	-14826
▁뭐얔	-14827
▁방문	-14828
▁버려	-14829
▁벗어	-14830
▁변함	-14831
▁별거	-14832
▁복무	-14833
▁불안	-14834
▁블핑	-14835
▁빠른	-14836
▁빠졌	-14837
▁뻔뻔	-14838
▁사돈	-14839
▁사장	-14840
▁살빼	-14841
▁삶에	-14842
▁세금	-14843
▁세돌	-14844
▁소거	-14845
▁소원	-14846
▁숙제	-14847
▁순둥	-14848
▁스킵	-14849
▁시대	-14850
▁싸우	-14851
▁썰은	-14852
▁씹덕	-14853
▁아플	-14854
▁안됬	-14855
▁안아	-14856
▁안에	-14857
▁않네	-14858
▁압도	-14859
▁앞니	-14860
▁애리	-14861
▁애플	-14862
▁양말	-14863
▁어그	-14864
▁어딘	-14865
▁어설	-14866
▁어이	-14867
▁엑셀	-14868
▁연말	-14869
▁연재	-14870
▁영업	-14871
▁예뻤	-14872
▁올린	-14873
▁원샷	-14874
▁유독	-14875
▁이벤	-14876
▁이전	-14877
▁자매	-14878
▁자존	-14879
▁잔뜩	-14880
▁잘춰	-14881
▁재생	-14882
▁저두	-14883
▁저항	-14884
▁적어	-14885
▁적용	-14886
▁전기	-14887
▁전원	-14888
▁정이	-14889
▁정작	-14890
▁조리	-14891
▁죽게	-14892
▁죽일	-14893
▁중고	-14894
▁징징	-14895
▁찌른	-14896
▁천진	-14897
▁충돌	-14898
▁친화	-14899
▁클라	-14900
▁틀어	-14901
▁티저	-14902
▁피가	-14903
▁피파	-14904
▁한게	-14905
▁한곡	-14906
▁한수	-14907
▁해킹	-14908
▁했을	-14909
▁현금	-14910
▁형도	-14911
▁황홀	-14912
すぎる	-14913
セック	-14914
거리는	-14915
겠구만	-14916
까지는	-14917
나보다	-14918
다가도	-14919
록새록	-14920
리하고	-14921
만큼은	-14922
먹어야	-14923
미쳤어	-14924
방법이	-14925
볼수록	-14926
봤네요	-14927
봤으면	-14928
분전은	-14929
분짜리	-14930
상윤쓰	-14931
성윤모	-14932
스럽네	-14933
았다고	-14934
언니도	-14935
에게는	-14936
오빠가	-14937
올려주	-14938
웠어요	-14939
으로만	-14940
이는거	-14941
인건가	-14942
있어도	-14943
자나요	-14944
지않는	-14945
진다고	-14946
쪽으로	-14947
치는거	-14948
하시다	-14949
하신듯	-14950
하잖아	-14951
하지말	-14952
할까요	-14953
해봐요	-14954
해줘야	-14955
햇는데	-14956
했던거	-14957
🔥🔥🔥	-14958
,000	-14959
?!!!	-14960
??!!	-14961
AMAT	-14962
CIÓN	-14963
IBLE	-14964
LISH	-14965
MING	-14966
YANG	-14967
YYYY	-14968
agai	-14969
akah	-14970
atan	-14971
edes	-14972
esus	-14973
head	-14974
that	-14975
tttt	-14976
ương	-14977
чень	-14978
▁BAR	-14979
▁BEN	-14980
▁GIL	-14981
▁Gen	-14982
▁Get	-14983
▁HOP	-14984
▁HUH	-14985
▁Ing	-14986
▁Kjk	-14987
▁Las	-14988
▁Mat	-14989
▁Net	-14990
▁REF	-14991
▁Sal	-14992
▁ale	-14993
▁aud	-14994
▁bao	-14995
▁cep	-14996
▁cúp	-14997
▁dev	-14998
▁etc	-14999
▁hat	-15000
▁jgn	-15001
▁lip	-15002
▁lov	-15003
▁maj	-15004
▁ngh	-15005
▁nhì	-15006
▁pon	-15007
▁thu	-15008
▁uno	-15009
▁vời	-15010
▁wtf	-15011
▁đầu	-15012
▁가비씨	-15013
▁감동이	-15014
▁감동적	-15015
▁개무서	-15016
▁거라고	-15017
▁건강이	-15018
▁공산당	-15019
▁괜찮은	-15020
▁귀엽지	-15021
▁그러고	-15022
▁그립다	-15023
▁기다린	-15024
▁기대가	-15025
▁깜짝놀	-15026
▁끝나면	-15027
▁나오지	-15028
▁넣어서	-15029
▁노래와	-15030
▁노래의	-15031
▁능력이	-15032
▁다니는	-15033
▁달콤한	-15034
▁당연한	-15035
▁대기업	-15036
▁대파를	-15037
▁덩어리	-15038
▁도경환	-15039
▁립스틱	-15040
▁만드네	-15041
▁만들면	-15042
▁많이컷	-15043
▁맞춰서	-15044
▁먹는다	-15045
▁멕시카	-15046
▁모르겠	-15047
▁모습은	-15048
▁몰랐다	-15049
▁무책임	-15050
▁미소짓	-15051
▁미쳤음	-15052
▁바이브	-15053
▁반갑다	-15054
▁배고파	-15055
▁버스가	-15056
▁베이비	-15057
▁보다는	-15058
▁부럽네	-15059
▁분명히	-15060
▁브라질	-15061
▁빨리와	-15062
▁뼈치킨	-15063
▁사장님	-15064
▁살아나	-15065
▁생겼네	-15066
▁설렌다	-15067
▁세월이	-15068
▁소미양	-15069
▁속에서	-15070
▁손바닥	-15071
▁스티커	-15072
▁시대에	-15073
▁신나게	-15074
▁아닌거	-15075
▁아쉽네	-15076
▁악마가	-15077
▁알았음	-15078
▁얘기는	-15079
▁어디에	-15080
▁어울리	-15081
▁여자들	-15082
▁연기도	-15083
▁영어를	-15084
▁영원한	-15085
▁오뚜기	-15086
▁오세요	-15087
▁와사비	-15088
▁와줘서	-15089
▁왔구나	-15090
▁운동에	-15091
▁운동화	-15092
▁음악을	-15093
▁이러니	-15094
▁이번화	-15095
▁이쁘냐	-15096
▁이유를	-15097
▁이주휘	-15098
▁인기가	-15099
▁잘만들	-15100
▁잘못된	-15101
▁잘생기	-15102
▁잘하구	-15103
▁재밌을	-15104
▁저런거	-15105
▁전부터	-15106
▁조합이	-15107
▁좋을듯	-15108
▁중인데	-15109
▁지내는	-15110
▁지석진	-15111
▁지젤은	-15112
▁진절미	-15113
▁추억을	-15114
▁콜라병	-15115
▁판타지	-15116
▁표현할	-15117
▁피지컬	-15118
▁하나가	-15119
▁하나는	-15120
▁하는건	-15121
▁한시간	-15122
▁햄마미	-15123
▁호랑이	-15124
▁화내는	-15125
▁확률이	-15126
▁휘어진	-15127
セックス	-15128
고싶네요	-15129
고있는데	-15130
기도하고	-15131
아저씨들	-15132
야겠어요	-15133
음료먼저	-15134
이었어요	-15135
하겠다고	-15136
하셨네요	-15137
하시다니	-15138
하영이는	-15139
하지않고	-15140
ATING	-15141
Sorry	-15142
black	-15143
ebook	-15144
icted	-15145
ident	-15146
ivity	-15147
meriz	-15148
orrow	-15149
osfan	-15150
urang	-15151
▁1:00	-15152
▁2:55	-15153
▁3:36	-15154
▁4:23	-15155
▁6060	-15156
▁6:13	-15157
▁7:33	-15158
▁8:15	-15159
▁BOYS	-15160
▁Baby	-15161
▁Chan	-15162
▁ESTA	-15163
▁FEEL	-15164
▁HEAR	-15165
▁HIGH	-15166
▁OKAY	-15167
▁ONLY	-15168
▁OUTF	-15169
▁Poor	-15170
▁SUCH	-15171
▁SUPP	-15172
▁Saya	-15173
▁TODO	-15174
▁WHEN	-15175
▁WORK	-15176
▁ayok	-15177
▁berl	-15178
▁cast	-15179
▁demi	-15180
▁four	-15181
▁gone	-15182
▁kuat	-15183
▁mand	-15184
▁mulu	-15185
▁ngga	-15186
▁pial	-15187
▁proc	-15188
▁ptsd	-15189
▁saat	-15190
▁situ	-15191
▁tadi	-15192
▁toys	-15193
▁đáng	-15194
▁đúng	-15195
▁간단하게	-15196
▁감스트가	-15197
▁갠적으로	-15198
▁귀엽다고	-15199
▁그날까지	-15200
▁남보라님	-15201
▁내려놓고	-15202
▁노래부르	-15203
▁노랭이님	-15204
▁다음에도	-15205
▁대박이네	-15206
▁돌려보는	-15207
▁돌아와서	-15208
▁들어가는	-15209
▁딩고뮤직	-15210
▁많이컸네	-15211
▁맛있는거	-15212
▁무섭네요	-15213
▁바뀌는거	-15214
▁반가워요	-15215
▁방송에서	-15216
▁보직변경	-15217
▁봐도봐도	-15218
▁비슷하게	-15219
▁빠짐없이	-15220
▁사람들의	-15221
▁사랑해여	-15222
▁사물궁이	-15223
▁새록새록	-15224
▁수고했어	-15225
▁승우아빠	-15226
▁시인하며	-15227
▁신기해요	-15228
▁썸네일에	-15229
▁씩씩하게	-15230
▁아니네요	-15231
▁아쉽지만	-15232
▁에스파가	-15233
▁여기부터	-15234
▁연쇄살인	-15235
▁영어공부	-15236
▁영원하라	-15237
▁오디오가	-15238
▁올라오는	-15239
▁외국인이	-15240
▁우나나나	-15241
▁유재석이	-15242
▁유튜브로	-15243
▁이번에는	-15244
▁이쯤되면	-15245
▁일본에서	-15246
▁자주자주	-15247
▁잘하는지	-15248
▁전소미님	-15249
▁정말정말	-15250
▁지나가는	-15251
▁찰떡이다	-15252
▁친구들이	-15253
▁해보세요	-15254
▁행복하자	-15255
▁확실하게	-15256
inding	-15257
kigayo	-15258
ungkin	-15259
ᄀᄏᄀᄏᄀᄏ	-15260
▁00:01	-15261
▁ATTAC	-15262
▁Allah	-15263
▁Bener	-15264
▁Dance	-15265
▁HANDS	-15266
▁Jesus	-15267
▁LABEL	-15268
▁Masih	-15269
▁POWER	-15270
▁Since	-15271
▁Today	-15272
▁VIEWS	-15273
▁VOCAL	-15274
▁adict	-15275
▁blood	-15276
▁brain	-15277
▁bulan	-15278
▁canta	-15279
▁chica	-15280
▁cosas	-15281
▁defin	-15282
▁están	-15283
▁goooo	-15284
▁habis	-15285
▁kelas	-15286
▁legit	-15287
▁lines	-15288
▁mouth	-15289
▁moves	-15290
▁nosot	-15291
▁older	-15292
▁order	-15293
▁parah	-15294
▁teams	-15295
▁telah	-15296
▁tiếng	-15297
▁todas	-15298
▁tough	-15299
▁turun	-15300
▁나올때마다	-15301
▁높은곳에서	-15302
▁느껴집니다	-15303
▁미숫가루도	-15304
▁사람입니다	-15305
▁사랑입니다	-15306
▁생각하니까	-15307
▁역대급이다	-15308
▁작품입니다	-15309
▁제이제이님	-15310
▁조심하세요	-15311
▁좋았습니다	-15312
▁찍어주세요	-15313
▁😭😭😭😭😭	-15314
ayangan	-15315
▁!!!!!!	-15316
▁LISTEN	-15317
▁Ngakak	-15318
▁People	-15319
▁Pretty	-15320
▁Uaenas	-15321
▁Visual	-15322
▁Vocals	-15323
▁apoyar	-15324
▁attack	-15325
▁bahkan	-15326
▁extrañ	-15327
▁follow	-15328
▁gentle	-15329
▁kiyowo	-15330
▁kuliah	-15331
▁lênnnn	-15332
▁nailed	-15333
▁partic	-15334
▁prefer	-15335
▁recomm	-15336
▁seguir	-15337
▁senyum	-15338
▁terima	-15339
▁teruss	-15340
▁winwin	-15341
▁wonwoo	-15342
▁초대해주세요	-15343
▁홍지승님이랑	-15344
Favorite	-15345
ᄐᄏᄐᄏᄐᄏᄐᄏ	-15346
▁CONTENT	-15347
▁LAGUNYA	-15348
▁NCTzens	-15349
▁October	-15350
▁Running	-15351
▁SIJEUNI	-15352
▁Someone	-15353
▁breathe	-15354
▁cosplay	-15355
▁español	-15356
▁hayoung	-15357
▁inspire	-15358
▁kenceng	-15359
▁penting	-15360
▁realise	-15361
▁stomach	-15362
▁tonight	-15363
▁winning	-15364
▁기다리겠습니다	-15365
▁BANGETTT	-15366
▁Birthday	-15367
▁Hwaiting	-15368
▁JongKook	-15369
▁becoming	-15370
▁berjuang	-15371
▁complain	-15372
▁creating	-15373
▁dressing	-15374
▁finished	-15375
▁floating	-15376
▁incrível	-15377
▁insecure	-15378
▁lagunyaa	-15379
▁preciosa	-15380
▁prepared	-15381
▁properly	-15382
▁recently	-15383
▁reminded	-15384
▁starting	-15385
▁thankyou	-15386
私のヌードセックス	-15387
Strawberry	-15388
▁challenge	-15389
▁continued	-15390
▁fantastic	-15391
▁pleaseeee	-15392
▁promoting	-15393
▁decepciona	-15394
▁Masterpiece	-15395
▁disappointed	-15396
!,	-15397
+1	-15398
,.	-15399
-0	-15400
.(	-15401
.)	-15402
25	-15403
90	-15404
=1	-15405
Bl	-15406
JD	-15407
NT	-15408
TV	-15409
TW	-15410
br	-15411
by	-15412
jd	-15413
ki	-15414
oz	-15415
po	-15416
sg	-15417
ái	-15418
ãy	-15419
és	-15420
еб	-15421
رس	-15422
نن	-15423
وو	-15424
يت	-15425
ลย	-15426
ầy	-15427
ểm	-15428
▁É	-15429
▁ý	-15430
▁̆	-15431
▁Б	-15432
▁Э	-15433
▁д	-15434
▁ᄑ	-15435
▁갸	-15436
▁괄	-15437
▁꼽	-15438
▁랑	-15439
▁벽	-15440
▁샘	-15441
▁샴	-15442
▁쌔	-15443
▁옳	-15444
▁웨	-15445
▁잤	-15446
▁족	-15447
▁컬	-15448
▁톰	-15449
▁훔	-15450
▁💓	-15451
▁😔	-15452
✨✨	-15453
んな	-15454
真的	-15455
갈비	-15456
개는	-15457
것다	-15458
게도	-15459
경림	-15460
과자	-15461
구가	-15462
구낭	-15463
길에	-15464
꿀팁	-15465
날로	-15466
넣고	-15467
높이	-15468
는뎅	-15469
다르	-15470
댄서	-15471
도소	-15472
동자	-15473
두근	-15474
드릴	-15475
든다	-15476
들로	-15477
등이	-15478
랑도	-15479
랑은	-15480
럽다	-15481
렵다	-15482
마가	-15483
마스	-15484
만드	-15485
만은	-15486
먼트	-15487
모사	-15488
몰라	-15489
미암	-15490
방향	-15491
버거	-15492
버스	-15493
별로	-15494
복귀	-15495
부로	-15496
분을	-15497
뿐인	-15498
사관	-15499
상에	-15500
선배	-15501
선은	-15502
세지	-15503
수고	-15504
스윗	-15505
스키	-15506
스테	-15507
스펙	-15508
시경	-15509
시터	-15510
신듯	-15511
쌤이	-15512
아냐	-15513
아앙	-15514
아직	-15515
야되	-15516
없게	-15517
에버	-15518
와도	-15519
와우	-15520
원도	-15521
위기	-15522
유투	-15523
이건	-15524
이모	-15525
인과	-15526
인도	-15527
일도	-15528
일을	-15529
자꾸	-15530
잖어	-15531
재생	-15532
저거	-15533
전히	-15534
좋게	-15535
즈도	-15536
쯤에	-15537
창에	-15538
찾아	-15539
챙겨	-15540
천사	-15541
초도	-15542
추억	-15543
키고	-15544
타이	-15545
폭발	-15546
피식	-15547
하심	-15548
하트	-15549
함에	-15550
해질	-15551
해피	-15552
혼자	-15553
환장	-15554
회가	-15555
🍣🍣	-15556
🖤🖤	-15557
😁😁	-15558
😂🤣	-15559
😊😊	-15560
🩹❤	-15561
?^^	-15562
AST	-15563
INI	-15564
IOD	-15565
NNN	-15566
OSE	-15567
OUR	-15568
PER	-15569
QUE	-15570
^♡^	-15571
akk	-15572
aks	-15573
ayy	-15574
den	-15575
eat	-15576
ees	-15577
eki	-15578
eks	-15579
emp	-15580
ese	-15581
ghh	-15582
iki	-15583
iod	-15584
ism	-15585
iva	-15586
jur	-15587
kom	-15588
lol	-15589
nim	-15590
rig	-15591
und	-15592
wan	-15593
yes	-15594
гда	-15595
лос	-15596
ᄏᄀᄏ	-15597
ᅡᅡᅡ	-15598
ạnh	-15599
•••	-15600
▁By	-15601
▁Gw	-15602
▁Sc	-15603
▁TW	-15604
▁UK	-15605
▁ge	-15606
▁vl	-15607
▁wo	-15608
▁را	-15609
▁감고	-15610
▁강의	-15611
▁강제	-15612
▁강진	-15613
▁같냐	-15614
▁거는	-15615
▁거저	-15616
▁걸음	-15617
▁결합	-15618
▁곁에	-15619
▁고잉	-15620
▁고치	-15621
▁괴물	-15622
▁국보	-15623
▁굿굿	-15624
▁그분	-15625
▁근대	-15626
▁기생	-15627
▁기존	-15628
▁꺼져	-15629
▁나니	-15630
▁나락	-15631
▁날씨	-15632
▁남녀	-15633
▁넘좋	-15634
▁노랜	-15635
▁다녔	-15636
▁다만	-15637
▁닮앗	-15638
▁담겨	-15639
▁담에	-15640
▁담은	-15641
▁당한	-15642
▁대비	-15643
▁도플	-15644
▁동거	-15645
▁돼서	-15646
▁딱히	-15647
▁또는	-15648
▁똑띠	-15649
▁똘망	-15650
▁롱런	-15651
▁뢴트	-15652
▁마셔	-15653
▁말라	-15654
▁맛잇	-15655
▁맞냐	-15656
▁먹여	-15657
▁멈출	-15658
▁멋짐	-15659
▁면담	-15660
▁모델	-15661
▁모셔	-15662
▁목표	-15663
▁물리	-15664
▁뭔뎈	-15665
▁미쵸	-15666
▁믿어	-15667
▁바이	-15668
▁박진	-15669
▁반납	-15670
▁배려	-15671
▁백혀	-15672
▁번째	-15673
▁볶음	-15674
▁볼게	-15675
▁비명	-15676
▁빠르	-15677
▁빡세	-15678
▁사심	-15679
▁삶은	-15680
▁생김	-15681
▁서윗	-15682
▁석가	-15683
▁설치	-15684
▁소재	-15685
▁손녀	-15686
▁손에	-15687
▁쇼츠	-15688
▁술마	-15689
▁술취	-15690
▁숨을	-15691
▁쉬운	-15692
▁쉽지	-15693
▁스쳐	-15694
▁스크	-15695
▁스파	-15696
▁슬슬	-15697
▁승승	-15698
▁식사	-15699
▁실감	-15700
▁싫다	-15701
▁씻김	-15702
▁아깝	-15703
▁아휴	-15704
▁안들	-15705
▁안지	-15706
▁안질	-15707
▁알수	-15708
▁야미	-15709
▁엄씨	-15710
▁없나	-15711
▁예의	-15712
▁오구	-15713
▁오네	-15714
▁올랐	-15715
▁완료	-15716
▁요번	-15717
▁원본	-15718
▁월클	-15719
▁웹툰	-15720
▁위성	-15721
▁유샤	-15722
▁의젓	-15723
▁의지	-15724
▁이끌	-15725
▁이재	-15726
▁인해	-15727
▁잘키	-15728
▁잘함	-15729
▁저럴	-15730
▁저지	-15731
▁전입	-15732
▁점이	-15733
▁조사	-15734
▁좀만	-15735
▁주헌	-15736
▁중딩	-15737
▁중력	-15738
▁지면	-15739
▁지지	-15740
▁지훈	-15741
▁질리	-15742
▁집을	-15743
▁짜리	-15744
▁차량	-15745
▁차로	-15746
▁청춘	-15747
▁취재	-15748
▁치약	-15749
▁치즈	-15750
▁치팅	-15751
▁친척	-15752
▁크으	-15753
▁클릭	-15754
▁탄탄	-15755
▁탈출	-15756
▁토끼	-15757
▁편이	-15758
▁푸딩	-15759
▁하늬	-15760
▁한계	-15761
▁할게	-15762
▁할까	-15763
▁허락	-15764
▁현타	-15765
▁호이	-15766
▁화난	-15767
▁환승	-15768
▁후련	-15769
▁후렴	-15770
▁흑흑	-15771
♥♥♥	-15772
거같네	-15773
것이다	-15774
기는거	-15775
김인직	-15776
꺼에요	-15777
끝나고	-15778
나오면	-15779
나이에	-15780
느낌이	-15781
는거임	-15782
덩어리	-15783
도하고	-15784
드디어	-15785
들보다	-15786
들어서	-15787
렸어요	-15788
릅니다	-15789
리는게	-15790
뮤니티	-15791
미암아	-15792
생각을	-15793
손으로	-15794
시키고	-15795
썸네일	-15796
아니다	-15797
안해도	-15798
야하는	-15799
얼마나	-15800
었다가	-15801
오오오	-15802
웁니다	-15803
웃기넼	-15804
위에서	-15805
으시길	-15806
으시는	-15807
을때가	-15808
이뻐라	-15809
이뻐요	-15810
이유가	-15811
인거죠	-15812
자들의	-15813
재밌어	-15814
지마요	-15815
처음에	-15816
친구들	-15817
카메라	-15818
테니까	-15819
하니깐	-15820
하더니	-15821
하더라	-15822
한사람	-15823
할때가	-15824
했잖아	-15825
형이랑	-15826
ANYA	-15827
EDDY	-15828
ISOD	-15829
aegi	-15830
alem	-15831
anda	-15832
atuh	-15833
bers	-15834
cing	-15835
face	-15836
hest	-15837
icas	-15838
idak	-15839
ieee	-15840
inas	-15841
kkkk	-15842
leng	-15843
moon	-15844
ngth	-15845
oken	-15846
olla	-15847
onya	-15848
ules	-15849
vice	-15850
xoxo	-15851
ᅲᅲᅲᅮ	-15852
▁(20	-15853
▁Ahh	-15854
▁BGM	-15855
▁DAM	-15856
▁EDG	-15857
▁ENC	-15858
▁EXT	-15859
▁Lat	-15860
▁MAD	-15861
▁MVs	-15862
▁Rev	-15863
▁SAV	-15864
▁WAN	-15865
▁Yay	-15866
▁ako	-15867
▁aww	-15868
▁bot	-15869
▁ese	-15870
▁faz	-15871
▁fig	-15872
▁fof	-15873
▁gar	-15874
▁gel	-15875
▁hus	-15876
▁inf	-15877
▁jdi	-15878
▁khi	-15879
▁klo	-15880
▁med	-15881
▁obv	-15882
▁pan	-15883
▁pus	-15884
▁sky	-15885
▁xin	-15886
▁все	-15887
▁ᄀᄋᄋ	-15888
▁ᄋᄌᄅ	-15889
▁가사를	-15890
▁갔는데	-15891
▁같다고	-15892
▁거예요	-15893
▁광란의	-15894
▁귀여울	-15895
▁그러니	-15896
▁근육이	-15897
▁기묘한	-15898
▁기분탓	-15899
▁끌려온	-15900
▁끝나는	-15901
▁나오길	-15902
▁나와주	-15903
▁내용이	-15904
▁내인생	-15905
▁넥스트	-15906
▁노무현	-15907
▁다음편	-15908
▁다행히	-15909
▁닮은거	-15910
▁더더욱	-15911
▁데리고	-15912
▁도입부	-15913
▁돌아올	-15914
▁된다는	-15915
▁들으러	-15916
▁떨어진	-15917
▁뛰어내	-15918
▁라우팅	-15919
▁루돌프	-15920
▁마누라	-15921
▁명수옹	-15922
▁뭘해도	-15923
▁미친다	-15924
▁바뀌는	-15925
▁박수를	-15926
▁반드시	-15927
▁발음이	-15928
▁보내어	-15929
▁보여줘	-15930
▁불사조	-15931
▁빠져서	-15932
▁빠지는	-15933
▁사실은	-15934
▁살아요	-15935
▁상당히	-15936
▁상상이	-15937
▁상황극	-15938
▁생각나	-15939
▁생각남	-15940
▁생기면	-15941
▁성형수	-15942
▁세상을	-15943
▁세프님	-15944
▁속시원	-15945
▁수직선	-15946
▁시대가	-15947
▁시대를	-15948
▁시키는	-15949
▁신기함	-15950
▁쓰니까	-15951
▁쓰시는	-15952
▁아무나	-15953
▁안사돈	-15954
▁안좋은	-15955
▁않나요	-15956
▁않았던	-15957
▁알지만	-15958
▁애들아	-15959
▁없다는	-15960
▁였는데	-15961
▁예능감	-15962
▁오빠는	-15963
▁오케이	-15964
▁올만에	-15965
▁웃으며	-15966
▁유도선	-15967
▁유지민	-15968
▁유쾌해	-15969
▁음식은	-15970
▁이거지	-15971
▁이걸로	-15972
▁이쁘당	-15973
▁이상형	-15974
▁이창호	-15975
▁인간의	-15976
▁인생에	-15977
▁인지기	-15978
▁일반화	-15979
▁일어날	-15980
▁있었고	-15981
▁자라고	-15982
▁자라는	-15983
▁자리에	-15984
▁자막을	-15985
▁장면은	-15986
▁재미가	-15987
▁재미로	-15988
▁재밋게	-15989
▁재밌당	-15990
▁저기서	-15991
▁젓가락	-15992
▁좋았을	-15993
▁좋잖아	-15994
▁주펄님	-15995
▁죽겠네	-15996
▁죽는게	-15997
▁지금이	-15998
▁진심이	-15999
▁진심인	-16000
▁진지한	-16001
▁짜증나	-16002
▁초딩때	-16003
▁추억돋	-16004
▁춤추는	-16005
▁친구를	-16006
▁큥튜브	-16007
▁키우는	-16008
▁트위치	-16009
▁팬들이	-16010
▁팬사랑	-16011
▁하루도	-16012
▁하시네	-16013
▁해주세	-16014
▁했다가	-16015
▁허커신	-16016
▁홈쇼핑	-16017
▁화목한	-16018
▁화이트	-16019
▁흥해라	-16020
너무좋다	-16021
목소리가	-16022
볼때마다	-16023
스러워서	-16024
아니에요	-16025
애애애애	-16026
어주세요	-16027
왔습니다	-16028
이었으면	-16029
하셨으면	-16030
하시는데	-16031
한다는게	-16032
AAAAA	-16033
EEEEE	-16034
aches	-16035
acial	-16036
ahhhh	-16037
ambah	-16038
andem	-16039
aring	-16040
drama	-16041
heart	-16042
icial	-16043
ieces	-16044
imate	-16045
inals	-16046
istan	-16047
olute	-16048
othes	-16049
usaha	-16050
xteen	-16051
~!!!!	-16052
ᄀᄏᄀᄏᄀ	-16053
ᄅᄏᄅᄏᄅ	-16054
▁0:15	-16055
▁0:40	-16056
▁2019	-16057
▁2:19	-16058
▁2:40	-16059
▁3:20	-16060
▁3:37	-16061
▁4:16	-16062
▁4:26	-16063
▁5:55	-16064
▁6:30	-16065
▁7:34	-16066
▁BUAT	-16067
▁Come	-16068
▁Eres	-16069
▁Gosh	-16070
▁Hari	-16071
▁LANG	-16072
▁OMGG	-16073
▁PLAY	-16074
▁Play	-16075
▁SEMU	-16076
▁TAKE	-16077
▁Vote	-16078
▁WELL	-16079
▁abis	-16080
▁appe	-16081
▁ayoo	-16082
▁babe	-16083
▁beer	-16084
▁blue	-16085
▁book	-16086
▁cans	-16087
▁cara	-16088
▁comb	-16089
▁công	-16090
▁días	-16091
▁eleg	-16092
▁fang	-16093
▁hizo	-16094
▁holy	-16095
▁jack	-16096
▁kece	-16097
▁lull	-16098
▁mata	-16099
▁plan	-16100
▁port	-16101
▁resp	-16102
▁seru	-16103
▁shar	-16104
▁spic	-16105
▁tour	-16106
▁wake	-16107
▁감동적인	-16108
▁감미로운	-16109
▁강호이는	-16110
▁개귀여워	-16111
▁개그맨이	-16112
▁개무섭다	-16113
▁건강보다	-16114
▁게스트로	-16115
▁공부하는	-16116
▁구독하고	-16117
▁귀엽잖아	-16118
▁김종국의	-16119
▁나라에서	-16120
▁나오나요	-16121
▁나오네요	-16122
▁나오니까	-16123
▁내스타일	-16124
▁놀랍네요	-16125
▁느껴지네	-16126
▁닮았는데	-16127
▁대신하여	-16128
▁디도스도	-16129
▁말미암아	-16130
▁멜로디가	-16131
▁모르는데	-16132
▁모르지만	-16133
▁몰랐네요	-16134
▁보드카를	-16135
▁봤었는데	-16136
▁부탁해요	-16137
▁생각해요	-16138
▁세로질러	-16139
▁세상에나	-16140
▁스마트폰	-16141
▁승승장구	-16142
▁시즈니들	-16143
▁싫어하는	-16144
▁아니냐구	-16145
▁아닠ᄏᄏ	-16146
▁아버지가	-16147
▁안되길래	-16148
▁안봤는데	-16149
▁않았지만	-16150
▁알았네요	-16151
▁어느순간	-16152
▁어린이집	-16153
▁어울려요	-16154
▁언제까지	-16155
▁여자친구	-16156
▁올라가는	-16157
▁이야기를	-16158
▁있었지만	-16159
▁자연재해	-16160
▁전쟁나면	-16161
▁좋았는데	-16162
▁좋으시고	-16163
▁챙겨주는	-16164
▁초코우유	-16165
▁최고에요	-16166
▁카리나가	-16167
▁컨텐츠가	-16168
▁파뿌리님	-16169
▁하고싶은	-16170
▁하는거야	-16171
▁하시네요	-16172
▁한국여자	-16173
▁햄편이랑	-16174
▁현실고증	-16175
아이스크림	-16176
...!!!	-16177
ATIONS	-16178
akhyun	-16179
aurant	-16180
eonwoo	-16181
iately	-16182
ngiang	-16183
▁12:30	-16184
▁CANDU	-16185
▁Eight	-16186
▁GREAT	-16187
▁Going	-16188
▁HEART	-16189
▁JEONG	-16190
▁LEVEL	-16191
▁STORY	-16192
▁Senin	-16193
▁South	-16194
▁Suara	-16195
▁TEDDY	-16196
▁VIDEO	-16197
▁Venom	-16198
▁chill	-16199
▁climb	-16200
▁colab	-16201
▁combo	-16202
▁conoc	-16203
▁dikit	-16204
▁frust	-16205
▁games	-16206
▁guard	-16207
▁ideas	-16208
▁insep	-16209
▁judul	-16210
▁lagii	-16211
▁lives	-16212
▁model	-16213
▁mulai	-16214
▁nomin	-16215
▁often	-16216
▁outta	-16217
▁piala	-16218
▁polar	-16219
▁queda	-16220
▁rumah	-16221
▁semif	-16222
▁shock	-16223
▁shoes	-16224
▁taken	-16225
▁touch	-16226
▁venom	-16227
▁ángel	-16228
▁ơiiii	-16229
▁가비님이랑	-16230
▁그리스도로	-16231
▁디도스라고	-16232
▁매드몬스터	-16233
▁모르겠네요	-16234
▁보여주셔서	-16235
▁와이파이가	-16236
▁위드코로나	-16237
▁잘생겼는데	-16238
▁종국이형이	-16239
▁콘서트에서	-16240
▁하겠습니다	-16241
▁행복하네요	-16242
▁행복하시고	-16243
million	-16244
rifying	-16245
ᄒᄏᄒᄏᄒᄏᄒ	-16246
▁ARTIST	-16247
▁EPISOD	-16248
▁FORGET	-16249
▁PERIOD	-16250
▁SAVAGE	-16251
▁Wonwoo	-16252
▁actual	-16253
▁bentar	-16254
▁berapa	-16255
▁bonito	-16256
▁caratt	-16257
▁cringe	-16258
▁dating	-16259
▁dimana	-16260
▁divert	-16261
▁encour	-16262
▁famous	-16263
▁ground	-16264
▁huhuhu	-16265
▁hungry	-16266
▁manito	-16267
▁master	-16268
▁played	-16269
▁promos	-16270
▁purple	-16271
▁relate	-16272
▁시작하자마자	-16273
▁약속했습니다	-16274
▁치유하겠다고	-16275
▁ENGLISH	-16276
▁becomes	-16277
▁biggest	-16278
▁calling	-16279
▁clothes	-16280
▁correct	-16281
▁debuted	-16282
▁diamond	-16283
▁hahahah	-16284
▁improve	-16285
▁mistake	-16286
▁momento	-16287
▁mungkin	-16288
▁nuestra	-16289
▁rasanya	-16290
▁receive	-16291
▁regrets	-16292
▁revenge	-16293
▁rocking	-16294
▁trabajo	-16295
▁trainer	-16296
▁whistle	-16297
▁감사하겠습니다	-16298
▁살아나셨습니다	-16299
▁자랑스럽습니다	-16300
ヲヲヲヲヲヲヲヲ	-16301
아아아아아아아아	-16302
▁Watching	-16303
▁consider	-16304
▁czennies	-16305
▁deserved	-16306
▁dislikes	-16307
▁esfuerzo	-16308
▁especial	-16309
▁mesmeriz	-16310
▁nosotros	-16311
▁opportun	-16312
▁positive	-16313
▁question	-16314
▁soloists	-16315
▁strength	-16316
닼ᄏᄏᄏᄏᄏᄏᄏᄏ	-16317
▁indonesia	-16318
▁recognize	-16319
▁AAAAAAAAAA	-16320
▁Definitely	-16321
▁Indonesian	-16322
▁consistent	-16323
▁girlfriend	-16324
▁streamming	-16325
▁Baekhyunnie	-16326
▁immediately	-16327
▁inseparable	-16328
▁introducing	-16329
▁sentimiento	-16330
▁entertainment	-16331
!.	-16332
(-	-16333
)♡	-16334
*)	-16335
26	-16336
40	-16337
BE	-16338
CC	-16339
IG	-16340
JJ	-16341
SG	-16342
SN	-16343
cl	-16344
hr	-16345
kg	-16346
mb	-16347
yp	-16348
ze	-16349
ôm	-16350
ım	-16351
̆̈	-16352
ам	-16353
па	-16354
ся	-16355
хо	-16356
รั	-16357
หน	-16358
อง	-16359
ี้	-16360
ᄒᄐ	-16361
ᅦᅦ	-16362
▁̄	-16363
▁Т	-16364
▁خ	-16365
▁규	-16366
▁깐	-16367
▁꼰	-16368
▁낚	-16369
▁낭	-16370
▁됴	-16371
▁둔	-16372
▁득	-16373
▁뚜	-16374
▁뜰	-16375
▁붉	-16376
▁붓	-16377
▁뽐	-16378
▁셔	-16379
▁씬	-16380
▁액	-16381
▁왘	-16382
▁좆	-16383
▁짭	-16384
▁쳤	-16385
▁탓	-16386
▁툭	-16387
▁👀	-16388
▁😃	-16389
▁🙏	-16390
した	-16391
겠나	-16392
경우	-16393
공감	-16394
공학	-16395
국이	-16396
김에	-16397
끼고	-16398
나마	-16399
넘어	-16400
는디	-16401
는요	-16402
닫고	-16403
당시	-16404
도리	-16405
동이	-16406
됐네	-16407
드컵	-16408
듯요	-16409
라지	-16410
로우	-16411
로피	-16412
마크	-16413
만족	-16414
모델	-16415
몰랐	-16416
무원	-16417
문희	-16418
뭐지	-16419
바다	-16420
바이	-16421
박사	-16422
반전	-16423
버논	-16424
병대	-16425
병은	-16426
본방	-16427
부들	-16428
사용	-16429
세트	-16430
셨을	-16431
소녀	-16432
슨생	-16433
시당	-16434
시퍼	-16435
시험	-16436
신병	-16437
신지	-16438
싶다	-16439
씨를	-16440
아리	-16441
아쉽	-16442
안돼	-16443
았고	-16444
어떤	-16445
어를	-16446
언냐	-16447
여러	-16448
여야	-16449
역대	-16450
연애	-16451
와의	-16452
완료	-16453
우기	-16454
울때	-16455
웠던	-16456
위는	-16457
음이	-16458
이익	-16459
인대	-16460
일락	-16461
입은	-16462
작곡	-16463
잔데	-16464
잖앜	-16465
적도	-16466
적을	-16467
져스	-16468
존잘	-16469
주시	-16470
줄도	-16471
쥬얼	-16472
지우	-16473
짱이	-16474
쨋든	-16475
찬석	-16476
체를	-16477
쵸단	-16478
충격	-16479
치열	-16480
카락	-16481
터지	-16482
텔레	-16483
특히	-16484
파트	-16485
폐렴	-16486
한태	-16487
함은	-16488
해여	-16489
해줄	-16490
혐오	-16491
호강	-16492
호랑	-16493
화장	-16494
😢😢	-16495
😵😵	-16496
!^^	-16497
/10	-16498
APA	-16499
ARY	-16500
ASI	-16501
CEP	-16502
EET	-16503
ORM	-16504
RRR	-16505
bit	-16506
bol	-16507
cul	-16508
for	-16509
gan	-16510
hee	-16511
igh	-16512
lla	-16513
ray	-16514
ssa	-16515
uat	-16516
unt	-16517
uss	-16518
vis	-16519
wat	-16520
~♡♡	-16521
àng	-16522
รัก	-16523
เลย	-16524
ᄒᄃᄃ	-16525
ᅲᅮᅲ	-16526
ịnh	-16527
ứng	-16528
ững	-16529
▁0.	-16530
▁63	-16531
▁GG	-16532
▁HY	-16533
▁KU	-16534
▁MA	-16535
▁Nh	-16536
▁TV	-16537
▁aj	-16538
▁ou	-16539
▁số	-16540
▁tú	-16541
▁ра	-16542
▁ام	-16543
▁حب	-16544
▁يا	-16545
▁가라	-16546
▁간절	-16547
▁갇혀	-16548
▁감명	-16549
▁감빡	-16550
▁감상	-16551
▁감히	-16552
▁경제	-16553
▁계약	-16554
▁계절	-16555
▁고개	-16556
▁고로	-16557
▁고막	-16558
▁공지	-16559
▁구조	-16560
▁귀욥	-16561
▁글을	-16562
▁글자	-16563
▁깊게	-16564
▁끝에	-16565
▁나은	-16566
▁남성	-16567
▁내꺼	-16568
▁내년	-16569
▁너므	-16570
▁너어	-16571
▁논리	-16572
▁놀래	-16573
▁농담	-16574
▁누르	-16575
▁누워	-16576
▁다짐	-16577
▁다치	-16578
▁다크	-16579
▁단독	-16580
▁담아	-16581
▁당근	-16582
▁대다	-16583
▁더쇼	-16584
▁도움	-16585
▁독립	-16586
▁돈도	-16587
▁되기	-16588
▁되길	-16589
▁둘째	-16590
▁디지	-16591
▁따스	-16592
▁때의	-16593
▁땡큐	-16594
▁떡상	-16595
▁또랑	-16596
▁뚝뚝	-16597
▁리듬	-16598
▁마라	-16599
▁말랐	-16600
▁맛나	-16601
▁매주	-16602
▁멈춰	-16603
▁몇살	-16604
▁모양	-16605
▁무게	-16606
▁묵묵	-16607
▁문과	-16608
▁뭐해	-16609
▁미나	-16610
▁미인	-16611
▁민폐	-16612
▁바꿀	-16613
▁바디	-16614
▁바짝	-16615
▁배가	-16616
▁버텨	-16617
▁번호	-16618
▁보람	-16619
▁봤을	-16620
▁부업	-16621
▁부조	-16622
▁비유	-16623
▁비율	-16624
▁산악	-16625
▁색상	-16626
▁생생	-16627
▁성인	-16628
▁세포	-16629
▁수상	-16630
▁수십	-16631
▁스튜	-16632
▁신청	-16633
▁싱글	-16634
▁싶네	-16635
▁쓴다	-16636
▁안믿	-16637
▁알던	-16638
▁애매	-16639
▁애정	-16640
▁앵글	-16641
▁없게	-16642
▁엘지	-16643
▁엠비	-16644
▁여돌	-16645
▁연주	-16646
▁예뿌	-16647
▁왔어	-16648
▁울어	-16649
▁웃은	-16650
▁원투	-16651
▁유니	-16652
▁으뜸	-16653
▁음방	-16654
▁의사	-16655
▁이종	-16656
▁이집	-16657
▁인증	-16658
▁임마	-16659
▁입담	-16660
▁자상	-16661
▁자켓	-16662
▁작사	-16663
▁잔인	-16664
▁장기	-16665
▁장미	-16666
▁장사	-16667
▁재석	-16668
▁저때	-16669
▁저음	-16670
▁적절	-16671
▁전주	-16672
▁제시	-16673
▁조곤	-16674
▁조타	-16675
▁주기	-16676
▁죽고	-16677
▁중반	-16678
▁지상	-16679
▁지짜	-16680
▁지하	-16681
▁쩔어	-16682
▁착지	-16683
▁채팅	-16684
▁체리	-16685
▁최대	-16686
▁최악	-16687
▁침투	-16688
▁칼로	-16689
▁코좀	-16690
▁탄생	-16691
▁터질	-16692
▁터트	-16693
▁통화	-16694
▁투명	-16695
▁튼튼	-16696
▁파는	-16697
▁파란	-16698
▁판매	-16699
▁팩폭	-16700
▁평화	-16701
▁프레	-16702
▁프리	-16703
▁하긴	-16704
▁하든	-16705
▁할인	-16706
▁허허	-16707
▁형의	-16708
▁회전	-16709
▁휩쓸	-16710
▁휴방	-16711
▁👏👏	-16712
가면서	-16713
겟어요	-16714
고마워	-16715
구니에	-16716
그래서	-16717
그런가	-16718
기여워	-16719
깁니다	-16720
나가는	-16721
났어요	-16722
는건지	-16723
는다고	-16724
다는거	-16725
다는것	-16726
됐는데	-16727
드라마	-16728
들끼리	-16729
디도스	-16730
라는데	-16731
렸다고	-16732
모르고	-16733
부르고	-16734
사람도	-16735
석에서	-16736
소리가	-16737
스러움	-16738
시키지	-16739
아빠가	-16740
어디서	-16741
엄마가	-16742
었을때	-16743
였네요	-16744
요ᅲᅲ	-16745
원들이	-16746
이라뇨	-16747
이쁘고	-16748
이였네	-16749
이형이	-16750
일까요	-16751
자들은	-16752
장삐쭈	-16753
중인데	-16754
째즈바	-16755
총몇명	-16756
최고다	-16757
축하해	-16758
하군요	-16759
하는걸	-16760
하다는	-16761
한건가	-16762
할머니	-16763
해야함	-16764
해야해	-16765
해주신	-16766
했던게	-16767
(-1)	-16768
9999	-16769
IKIN	-16770
ISTS	-16771
ORGE	-16772
THER	-16773
akes	-16774
baen	-16775
cias	-16776
cles	-16777
eday	-16778
etin	-16779
ging	-16780
hies	-16781
iaod	-16782
idge	-16783
idos	-16784
iles	-16785
imin	-16786
ingg	-16787
oker	-16788
pare	-16789
pite	-16790
raid	-16791
shin	-16792
side	-16793
somi	-16794
tain	-16795
udos	-16796
uran	-16797
utin	-16798
wang	-16799
~^^♡	-16800
ᄀᄀᄀᄀ	-16801
▁#13	-16802
▁700	-16803
▁>_<	-16804
▁ADA	-16805
▁BIG	-16806
▁BTW	-16807
▁Bet	-16808
▁Day	-16809
▁Era	-16810
▁Got	-16811
▁HAR	-16812
▁INV	-16813
▁Jay	-16814
▁KUN	-16815
▁LMA	-16816
▁Lip	-16817
▁Luv	-16818
▁NEW	-16819
▁Out	-16820
▁ROX	-16821
▁Rem	-16822
▁Ros	-16823
▁Sek	-16824
▁Was	-16825
▁YOK	-16826
▁ads	-16827
▁bay	-16828
▁bom	-16829
▁doy	-16830
▁emb	-16831
▁ens	-16832
▁fue	-16833
▁ful	-16834
▁hac	-16835
▁hyd	-16836
▁jak	-16837
▁kat	-16838
▁lle	-16839
▁loh	-16840
▁mvs	-16841
▁ofc	-16842
▁pin	-16843
▁sii	-16844
▁thứ	-16845
▁toi	-16846
▁tới	-16847
▁çok	-16848
▁đấy	-16849
▁как	-16850
▁пре	-16851
▁وال	-16852
▁ᅩᅮᅣ	-16853
▁가까운	-16854
▁가루가	-16855
▁가비는	-16856
▁개좋다	-16857
▁거꾸로	-16858
▁관리자	-16859
▁광대가	-16860
▁국가가	-16861
▁그것이	-16862
▁그니까	-16863
▁극대노	-16864
▁끊겨서	-16865
▁끝판왕	-16866
▁나가고	-16867
▁나라는	-16868
▁나문희	-16869
▁나왔네	-16870
▁날씨가	-16871
▁남자분	-16872
▁내맘을	-16873
▁내용도	-16874
▁넘사벽	-16875
▁누구냐	-16876
▁눈으로	-16877
▁다시는	-16878
▁다정한	-16879
▁대학교	-16880
▁대학생	-16881
▁대화가	-16882
▁댄서는	-16883
▁더러운	-16884
▁도플갱	-16885
▁디자인	-16886
▁딸기달	-16887
▁또다른	-16888
▁리스펙	-16889
▁마음도	-16890
▁많은걸	-16891
▁먹고싶	-16892
▁못생겼	-16893
▁문제는	-16894
▁뮤비가	-16895
▁미치겠	-16896
▁민경훈	-16897
▁민정아	-16898
▁받아서	-16899
▁방송국	-16900
▁방송이	-16901
▁배우는	-16902
▁보고만	-16903
▁보컬이	-16904
▁빠졌네	-16905
▁사람과	-16906
▁사실상	-16907
▁사형이	-16908
▁생각할	-16909
▁선물을	-16910
▁설명란	-16911
▁성격도	-16912
▁성공한	-16913
▁성인이	-16914
▁소미는	-16915
▁소속사	-16916
▁시원해	-16917
▁쓰는게	-16918
▁아깝다	-16919
▁아닌게	-16920
▁아들을	-16921
▁아무말	-16922
▁아이를	-16923
▁아이스	-16924
▁안먹고	-16925
▁않으면	-16926
▁않지만	-16927
▁알겠다	-16928
▁애드립	-16929
▁얘기를	-16930
▁어그로	-16931
▁어딨어	-16932
▁어렸을	-16933
▁어몽님	-16934
▁억지로	-16935
▁언제쯤	-16936
▁얼굴로	-16937
▁얼마만	-16938
▁없잖아	-16939
▁에이스	-16940
▁여윽시	-16941
▁연기를	-16942
▁예능에	-16943
▁예쁜데	-16944
▁오빠도	-16945
▁오빠들	-16946
▁올라갈	-16947
▁올리고	-16948
▁우리형	-16949
▁운전자	-16950
▁울면서	-16951
▁웃으면	-16952
▁웃을때	-16953
▁웬만한	-16954
▁위험한	-16955
▁윈터의	-16956
▁은은한	-16957
▁의미로	-16958
▁이여자	-16959
▁이유로	-16960
▁익숙한	-16961
▁인간은	-16962
▁인디기	-16963
▁일어난	-16964
▁입가에	-16965
▁있는건	-16966
▁있도록	-16967
▁자라길	-16968
▁자신감	-16969
▁잘부르	-16970
▁잘지내	-16971
▁재미도	-16972
▁재미를	-16973
▁잼민이	-16974
▁저세상	-16975
▁전부다	-16976
▁전생에	-16977
▁전율이	-16978
▁전체가	-16979
▁절대로	-16980
▁정도는	-16981
▁좋겠네	-16982
▁좌회전	-16983
▁죽을뻔	-16984
▁찌르고	-16985
▁차병호	-16986
▁참으로	-16987
▁채널은	-16988
▁첨부터	-16989
▁치킨이	-16990
▁터지네	-16991
▁터지면	-16992
▁테이크	-16993
▁텐션도	-16994
▁티셔츠	-16995
▁파이널	-16996
▁포근한	-16997
▁하시길	-16998
▁하영인	-16999
▁학교도	-17000
▁한다면	-17001
▁해놓고	-17002
▁해보고	-17003
▁해줘야	-17004
▁핵인싸	-17005
▁했다고	-17006
▁현실이	-17007
▁황대중	-17008
▁황치열	-17009
▁후라이	-17010
▁히트곡	-17011
▁힐링이	-17012
넼ᄏᄏᄏ	-17013
리스트에	-17014
민쩌미님	-17015
앞으로도	-17016
하는사람	-17017
👏🏻👏🏻	-17018
🙏🙏🙏🙏	-17019
...^^	-17020
;;;;;	-17021
ALLOW	-17022
BOARD	-17023
ESOME	-17024
IVATE	-17025
ampir	-17026
anger	-17027
aught	-17028
inggu	-17029
intai	-17030
jeong	-17031
kward	-17032
~~~!!	-17033
ᄒᄏᄒᄏᄒ	-17034
▁0:23	-17035
▁0:42	-17036
▁1:52	-17037
▁3000	-17038
▁4:22	-17039
▁5:54	-17040
▁7:10	-17041
▁8:10	-17042
▁8:30	-17043
▁AAAA	-17044
▁Ahhh	-17045
▁Apoy	-17046
▁BILL	-17047
▁FANS	-17048
▁HAIR	-17049
▁HOSH	-17050
▁JTBC	-17051
▁KILL	-17052
▁LAGI	-17053
▁Mean	-17054
▁Only	-17055
▁Pink	-17056
▁RAIN	-17057
▁SUMP	-17058
▁SURE	-17059
▁YOUU	-17060
▁akun	-17061
▁algo	-17062
▁ampe	-17063
▁aura	-17064
▁bing	-17065
▁bngt	-17066
▁case	-17067
▁cred	-17068
▁dark	-17069
▁dios	-17070
▁dist	-17071
▁dude	-17072
▁fate	-17073
▁film	-17074
▁gose	-17075
▁kupu	-17076
▁luna	-17077
▁male	-17078
▁obat	-17079
▁obra	-17080
▁plis	-17081
▁rank	-17082
▁ride	-17083
▁rout	-17084
▁sali	-17085
▁shes	-17086
▁shot	-17087
▁sini	-17088
▁tiba	-17089
▁toda	-17090
▁trai	-17091
▁감탄하고	-17092
▁개멋있다	-17093
▁개사이다	-17094
▁개소리야	-17095
▁고생했어	-17096
▁고속도로	-17097
▁국군장병	-17098
▁귀엽자나	-17099
▁그렇다고	-17100
▁나온다고	-17101
▁나왔네요	-17102
▁넘귀여워	-17103
▁노력하는	-17104
▁느끼는거	-17105
▁다른사람	-17106
▁닮았네요	-17107
▁대단해요	-17108
▁대화하는	-17109
▁래퍼분들	-17110
▁립제이가	-17111
▁많습니다	-17112
▁맛있다고	-17113
▁머리카락	-17114
▁먹어보고	-17115
▁먹어봐야	-17116
▁먹으면서	-17117
▁몽환적인	-17118
▁배경음악	-17119
▁부르기로	-17120
▁빨간모자	-17121
▁사랑노래	-17122
▁사회에서	-17123
▁선생님이	-17124
▁설거지론	-17125
▁성윤모를	-17126
▁슈뻘맨님	-17127
▁스테이크	-17128
▁시작하는	-17129
▁아무생각	-17130
▁아빠미소	-17131
▁아웃트로	-17132
▁아이들이	-17133
▁아형에서	-17134
▁알았더니	-17135
▁알았으면	-17136
▁앞으로는	-17137
▁어울린다	-17138
▁웃었네요	-17139
▁유튜버가	-17140
▁이러면서	-17141
▁이뻐지네	-17142
▁이영상을	-17143
▁인형까지	-17144
▁일어나는	-17145
▁있었네요	-17146
▁있었어요	-17147
▁잘어울리	-17148
▁잘하는거	-17149
▁잘하시네	-17150
▁장면에서	-17151
▁장삐쭈가	-17152
▁재미있고	-17153
▁정한이가	-17154
▁좋아한다	-17155
▁좋은노래	-17156
▁좋은영상	-17157
▁중국이라	-17158
▁찰떡이야	-17159
▁컨텐츠도	-17160
▁퀄리티가	-17161
▁팬이에요	-17162
▁하고싶다	-17163
▁하영이랑	-17164
▁하이텐션	-17165
▁하지말고	-17166
▁해주세용	-17167
▁해주시면	-17168
▁해줬으면	-17169
▁😍😍😍😍	-17170
엌ᄏᄏᄏᄏ	-17171
오징어게임	-17172
응원합니다	-17173
하지마세요	-17174
😭😭😭😭😭	-17175
baenim	-17176
ession	-17177
olaegi	-17178
remacy	-17179
vesick	-17180
▁10:09	-17181
▁18:14	-17182
▁:((((	-17183
▁Album	-17184
▁DANCE	-17185
▁DOING	-17186
▁GORGE	-17187
▁ILYSM	-17188
▁KASIH	-17189
▁Không	-17190
▁Sweet	-17191
▁THERE	-17192
▁WATCH	-17193
▁WORDS	-17194
▁Would	-17195
▁alegr	-17196
▁alive	-17197
▁apart	-17198
▁badly	-17199
▁chart	-17200
▁coach	-17201
▁const	-17202
▁facts	-17203
▁force	-17204
▁gaada	-17205
▁glass	-17206
▁gusto	-17207
▁hoshi	-17208
▁india	-17209
▁kapan	-17210
▁karna	-17211
▁lovee	-17212
▁menit	-17213
▁minha	-17214
▁naman	-17215
▁oleng	-17216
▁plays	-17217
▁roles	-17218
▁sakit	-17219
▁serem	-17220
▁siang	-17221
▁sigue	-17222
▁spicy	-17223
▁tahun	-17224
▁tanta	-17225
▁teach	-17226
▁three	-17227
▁thành	-17228
▁thích	-17229
▁wkwkw	-17230
▁wreck	-17231
▁가변차로를	-17232
▁그린캠프가	-17233
▁나오자마자	-17234
▁너무귀엽다	-17235
▁노래부를때	-17236
▁느낌이네요	-17237
▁대단하네요	-17238
▁대박입니다	-17239
▁만들어주는	-17240
▁보고있으면	-17241
▁사랑한다고	-17242
▁생각하는데	-17243
▁생각하면서	-17244
▁생각해주는	-17245
▁알고리즘에	-17246
▁엔조이커플	-17247
▁오랜만이야	-17248
▁우리나라도	-17249
▁웅장해지는	-17250
▁이쑤시개로	-17251
▁자연스러운	-17252
▁장난아니다	-17253
▁하고싶은거	-17254
▁화이팅하자	-17255
iaodery	-17256
lection	-17257
▁Anyway	-17258
▁Beyond	-17259
▁INSANE	-17260
▁KARINA	-17261
▁SEASON	-17262
▁Vampir	-17263
▁barney	-17264
▁breaks	-17265
▁button	-17266
▁facial	-17267
▁genial	-17268
▁lambat	-17269
▁lowkey	-17270
▁memang	-17271
▁moving	-17272
▁mucore	-17273
▁nyanyi	-17274
▁pagimu	-17275
▁queens	-17276
▁saling	-17277
▁scenes	-17278
▁secret	-17279
▁sehari	-17280
▁selama	-17281
▁shaped	-17282
▁shines	-17283
▁sijeun	-17284
▁stabil	-17285
▁starts	-17286
▁styles	-17287
▁tienes	-17288
▁turned	-17289
▁versat	-17290
▁동욱이형이랑	-17291
▁수고하셨어요	-17292
넼ᄏᄏᄏᄏᄏᄏ	-17293
닼ᄏᄏᄏᄏᄏᄏ	-17294
OOOOOOOO	-17295
ULATIONS	-17296
agaimana	-17297
▁ATTACCA	-17298
▁HERMOSA	-17299
▁Morning	-17300
▁PRIVATE	-17301
▁REFEREN	-17302
▁Whoever	-17303
▁awkward	-17304
▁bakalan	-17305
▁berkata	-17306
▁dropped	-17307
▁effects	-17308
▁encanto	-17309
▁lullaby	-17310
▁opening	-17311
▁selesai	-17312
▁somehow	-17313
▁spoiled	-17314
▁usually	-17315
▁whosfan	-17316
▁대구돈까스형님	-17317
욬ᄏᄏᄏᄏᄏᄏᄏ	-17318
▁CONTINUE	-17319
▁Comeback	-17320
▁DESERVES	-17321
▁GORGEOUS	-17322
▁HAHAHAHH	-17323
▁LAUGHING	-17324
▁absolute	-17325
▁cheating	-17326
▁composed	-17327
▁greeting	-17328
▁hardwork	-17329
▁hydrated	-17330
▁included	-17331
▁maravilh	-17332
▁midnight	-17333
▁particip	-17334
▁seminggu	-17335
▁standard	-17336
▁ternyata	-17337
▁tomorrow	-17338
▁ultimate	-17339
▁uploaded	-17340
▁고생많으셨습니다	-17341
▁BILLBOARD	-17342
▁SARANGHAE	-17343
▁cameraman	-17344
▁interview	-17345
▁producing	-17346
▁reactions	-17347
▁recommend	-17348
▁showmaker	-17349
▁wondering	-17350
▁beautifull	-17351
▁blacklabel	-17352
▁expression	-17353
▁generation	-17354
▁mcountdown	-17355
▁terrifying	-17356
▁ᅲᅲᅲᅲᅲᅲᅲᅲᅲᅲ	-17357
▁captivating	-17358
▁dengerinnya	-17359
▁translation	-17360
▁HAHAHAHAHAHA	-17361
▁beraktivitas	-17362
▁sentimientos	-17363
~~~~~~~~~~~~~~~~	-17364
▁CONGRATULATIONS	-17365
',	-17366
(*	-17367
-;	-17368
18	-17369
?”	-17370
JI	-17371
TO	-17372
ZY	-17373
cr	-17374
du	-17375
ls	-17376
ph	-17377
tp	-17378
vi	-17379
wy	-17380
óm	-17381
ăm	-17382
лу	-17383
ше	-17384
دو	-17385
ดี	-17386
้า	-17387
ᄃᄀ	-17388
ᄅᄂ	-17389
ện	-17390
ộc	-17391
▁Á	-17392
▁Д	-17393
▁Я	-17394
▁น	-17395
▁好	-17396
▁겹	-17397
▁깍	-17398
▁꺾	-17399
▁꽂	-17400
▁닥	-17401
▁렌	-17402
▁멸	-17403
▁삽	-17404
▁셰	-17405
▁숲	-17406
▁쏙	-17407
▁쏴	-17408
▁엿	-17409
▁윈	-17410
▁젠	-17411
▁촉	-17412
▁춥	-17413
▁콧	-17414
▁쾌	-17415
▁쿵	-17416
▁탔	-17417
▁🇲	-17418
▁🐶	-17419
▁👁	-17420
▁😻	-17421
この	-17422
ィン	-17423
가방	-17424
각이	-17425
각장	-17426
감고	-17427
감상	-17428
갔네	-17429
것들	-17430
겨요	-17431
고사	-17432
공기	-17433
과서	-17434
관부	-17435
구로	-17436
구슬	-17437
기계	-17438
기의	-17439
남은	-17440
남편	-17441
년은	-17442
놈의	-17443
눈을	-17444
늦게	-17445
니스	-17446
달콩	-17447
대도	-17448
더더	-17449
덜덜	-17450
도다	-17451
도전	-17452
돼지	-17453
되게	-17454
디언	-17455
떠서	-17456
뜰폰	-17457
띵곡	-17458
러브	-17459
레고	-17460
리라	-17461
린듯	-17462
릴듯	-17463
마을	-17464
면이	-17465
면허	-17466
뭐임	-17467
뭔가	-17468
미쳣	-17469
바라	-17470
박민	-17471
박스	-17472
반갑	-17473
법을	-17474
베이	-17475
부에	-17476
불쌍	-17477
비밀	-17478
비에	-17479
사진	-17480
사탕	-17481
사회	-17482
살기	-17483
삶이	-17484
생일	-17485
서는	-17486
세가	-17487
센터	-17488
소를	-17489
솔직	-17490
스포	-17491
신게	-17492
심을	-17493
아닙	-17494
아래	-17495
알려	-17496
앙앙	-17497
야해	-17498
양수	-17499
어로	-17500
어질	-17501
업자	-17502
옛날	-17503
오구	-17504
오른	-17505
용이	-17506
우즈	-17507
워라	-17508
원래	-17509
위한	-17510
을꺼	-17511
이얔	-17512
인척	-17513
일뿐	-17514
임을	-17515
입니	-17516
입장	-17517
있으	-17518
자님	-17519
잔아	-17520
장한	-17521
저래	-17522
저히	-17523
제목	-17524
제품	-17525
준거	-17526
중간	-17527
지옥	-17528
차별	-17529
치다	-17530
치도	-17531
카드	-17532
캐럿	-17533
커엽	-17534
터졌	-17535
통이	-17536
트에	-17537
파포	-17538
판에	-17539
팔이	-17540
피디	-17541
하누	-17542
한대	-17543
한적	-17544
할것	-17545
함과	-17546
햇다	-17547
했죠	-17548
힘내	-17549
💯💯	-17550
😩😩	-17551
..♡	-17552
:((	-17553
>_<	-17554
ADI	-17555
FIN	-17556
ICA	-17557
IVE	-17558
TIT	-17559
^-^	-17560
ano	-17561
ath	-17562
att	-17563
emu	-17564
ger	-17565
kai	-17566
kal	-17567
kup	-17568
mmm	-17569
nts	-17570
odu	-17571
ooh	-17572
raf	-17573
rio	-17574
rip	-17575
ssi	-17576
tae	-17577
tel	-17578
uai	-17579
uda	-17580
uth	-17581
vna	-17582
ños	-17583
кра	-17584
ный	-17585
сто	-17586
ᄁᄏᄏ	-17587
ᄐᄐᄏ	-17588
ᄐᄐᄐ	-17589
ᅮᅲᅲ	-17590
ᅳᅳᅳ	-17591
▁1,	-17592
▁34	-17593
▁38	-17594
▁48	-17595
▁AP	-17596
▁CR	-17597
▁Cu	-17598
▁Ha	-17599
▁ID	-17600
▁IF	-17601
▁TI	-17602
▁TU	-17603
▁YT	-17604
▁ba	-17605
▁bf	-17606
▁bp	-17607
▁ce	-17608
▁ig	-17609
▁ky	-17610
▁mb	-17611
▁sé	-17612
▁só	-17613
▁vc	-17614
▁xd	-17615
▁éx	-17616
▁го	-17617
▁мо	-17618
▁اح	-17619
▁اش	-17620
▁ما	-17621
▁가볍	-17622
▁가시	-17623
▁가입	-17624
▁가졌	-17625
▁각자	-17626
▁강렬	-17627
▁개욱	-17628
▁개판	-17629
▁갬성	-17630
▁걸림	-17631
▁격투	-17632
▁결코	-17633
▁경완	-17634
▁계실	-17635
▁고난	-17636
▁고쳐	-17637
▁공사	-17638
▁공식	-17639
▁곽형	-17640
▁구성	-17641
▁꼭꼭	-17642
▁끄덕	-17643
▁끼가	-17644
▁나왓	-17645
▁냉장	-17646
▁너도	-17647
▁넘는	-17648
▁녹아	-17649
▁눈나	-17650
▁다뤄	-17651
▁당첨	-17652
▁대접	-17653
▁더한	-17654
▁돼지	-17655
▁될거	-17656
▁든든	-17657
▁또래	-17658
▁똑닮	-17659
▁마찬	-17660
▁막히	-17661
▁맛은	-17662
▁몇달	-17663
▁목이	-17664
▁몰카	-17665
▁몸도	-17666
▁물려	-17667
▁미워	-17668
▁미침	-17669
▁바꼈	-17670
▁바램	-17671
▁바빠	-17672
▁박고	-17673
▁반짝	-17674
▁발성	-17675
▁밥도	-17676
▁배달	-17677
▁배신	-17678
▁보구	-17679
▁보냈	-17680
▁보던	-17681
▁부딪	-17682
▁블박	-17683
▁비오	-17684
▁빛을	-17685
▁뿐만	-17686
▁사촌	-17687
▁사패	-17688
▁살지	-17689
▁상담	-17690
▁상승	-17691
▁상의	-17692
▁상쾌	-17693
▁샴푸	-17694
▁성별	-17695
▁소비	-17696
▁수익	-17697
▁술먹	-17698
▁숨겨	-17699
▁쉬는	-17700
▁시강	-17701
▁식당	-17702
▁신봉	-17703
▁신이	-17704
▁쌍둥	-17705
▁써져	-17706
▁쓰기	-17707
▁쓸데	-17708
▁아리	-17709
▁아웅	-17710
▁안고	-17711
▁안주	-17712
▁알콩	-17713
▁어마	-17714
▁에고	-17715
▁엑스	-17716
▁엘레	-17717
▁연속	-17718
▁예씨	-17719
▁오일	-17720
▁옷도	-17721
▁와플	-17722
▁요금	-17723
▁웃길	-17724
▁으악	-17725
▁이에	-17726
▁이영	-17727
▁잊혀	-17728
▁작전	-17729
▁잘배	-17730
▁장갑	-17731
▁저가	-17732
▁적게	-17733
▁정감	-17734
▁정정	-17735
▁조선	-17736
▁종목	-17737
▁좋냐	-17738
▁죄책	-17739
▁주마	-17740
▁주면	-17741
▁주민	-17742
▁주장	-17743
▁주지	-17744
▁죽기	-17745
▁죽이	-17746
▁지났	-17747
▁지랄	-17748
▁지민	-17749
▁지붕	-17750
▁직전	-17751
▁짓을	-17752
▁짧게	-17753
▁쨔스	-17754
▁차선	-17755
▁차지	-17756
▁창문	-17757
▁천만	-17758
▁초보	-17759
▁추운	-17760
▁추카	-17761
▁충실	-17762
▁취저	-17763
▁취한	-17764
▁컸다	-17765
▁케어	-17766
▁크림	-17767
▁클립	-17768
▁타임	-17769
▁튀어	-17770
▁팝콘	-17771
▁팬은	-17772
▁편은	-17773
▁포스	-17774
▁포카	-17775
▁폭풍	-17776
▁피티	-17777
▁하죠	-17778
▁한쪽	-17779
▁할리	-17780
▁할지	-17781
▁해줬	-17782
▁했고	-17783
▁현대	-17784
▁호구	-17785
▁혼내	-17786
▁화상	-17787
▁확장	-17788
▁활발	-17789
▁황당	-17790
▁흐름	-17791
▁💖💖	-17792
나는거	-17793
다ᅲᅲ	-17794
뎈ᄏᄏ	-17795
된다고	-17796
들어가	-17797
들이다	-17798
려는데	-17799
만으로	-17800
명이서	-17801
베이터	-17802
색으로	-17803
시스템	-17804
신분들	-17805
쓰는데	-17806
야한다	-17807
언니들	-17808
없네요	-17809
없으면	-17810
열심히	-17811
였다고	-17812
왔으면	-17813
우세요	-17814
웃긴데	-17815
으니깐	-17816
이는게	-17817
이쁘게	-17818
이쁘네	-17819
이어서	-17820
이었어	-17821
인것도	-17822
입으로	-17823
있나요	-17824
점에서	-17825
좋겠다	-17826
주시고	-17827
줄알고	-17828
지니까	-17829
치는게	-17830
치는데	-17831
칩니다	-17832
터지고	-17833
하겠다	-17834
하도록	-17835
하자면	-17836
한건데	-17837
할거야	-17838
[...]
